{"version":"1.0","truncation":null,"padding":null,"added_tokens":[{"id":0,"content":"<s>","single_word":false,"lstrip":false,"rstrip":false,"normalized":false,"special":true},{"id":1,"content":"<pad>","single_word":false,"lstrip":false,"rstrip":false,"normalized":false,"special":true},{"id":2,"content":"</s>","single_word":false,"lstrip":false,"rstrip":false,"normalized":false,"special":true},{"id":3,"content":"<unk>","single_word":false,"lstrip":false,"rstrip":false,"normalized":false,"special":true},{"id":4,"content":"<mask>","single_word":false,"lstrip":false,"rstrip":false,"normalized":false,"special":true}],"normalizer":{"type":"Sequence","normalizers":[{"type":"Strip","strip_left":true,"strip_right":true},{"type":"NFC"}]},"pre_tokenizer":{"type":"ByteLevel","add_prefix_space":true,"trim_offsets":true,"use_regex":true},"post_processor":{"type":"ByteLevel","add_prefix_space":true,"trim_offsets":true,"use_regex":true},"decoder":{"type":"ByteLevel","add_prefix_space":true,"trim_offsets":true,"use_regex":true},"model":{"type":"BPE","dropout":null,"unk_token":null,"continuing_subword_prefix":null,"end_of_word_suffix":null,"fuse_unk":false,"byte_fallback":false,"ignore_merges":false,"vocab":{"<s>":0,"<pad>":1,"</s>":2,"<unk>":3,"<mask>":4,"!":5,"\"":6,"#":7,"$":8,"%":9,"&":10,"'":11,"(":12,")":13,"*":14,"+":15,",":16,"-":17,".":18,"/":19,"0":20,"1":21,"2":22,"3":23,"4":24,"5":25,"6":26,"7":27,"8":28,"9":29,":":30,";":31,"<":32,"=":33,">":34,"?":35,"@":36,"A":37,"B":38,"C":39,"D":40,"E":41,"F":42,"G":43,"H":44,"I":45,"J":46,"K":47,"L":48,"M":49,"N":50,"O":51,"P":52,"Q":53,"R":54,"S":55,"T":56,"U":57,"V":58,"W":59,"X":60,"Y":61,"Z":62,"[":63,"\\":64,"]":65,"^":66,"_":67,"`":68,"a":69,"b":70,"c":71,"d":72,"e":73,"f":74,"g":75,"h":76,"i":77,"j":78,"k":79,"l":80,"m":81,"n":82,"o":83,"p":84,"q":85,"r":86,"s":87,"t":88,"u":89,"v":90,"w":91,"x":92,"y":93,"z":94,"{":95,"|":96,"}":97,"~":98,"»":99,"¿":100,"ï":101,"ā":102,"Ă":103,"ă":104,"ą":105,"Ć":106,"ć":107,"Ĉ":108,"ď":109,"đ":110,"Ē":111,"Ĕ":112,"ę":113,"ě":114,"Ĝ":115,"ĝ":116,"Ğ":117,"Ġ":118,"Ġt":119,"he":120,"Ġa":121,"in":122,"Ġthe":123,"Ġs":124,"Ġw":125,"Ġo":126,"re":127,"nd":128,"er":129,"ha":130,"ou":131,"Ġb":132,"on":133,"it":134,"ed":135,"is":136,"Ġm":137,"Ġc":138,"en":139,"Ġf":140,"Ġof":141,"Ġand":142,"or":143,"Ġto":144,"es":145,"ing":146,"Ġp":147,"Ġd":148,"at":149,"ll":150,"ar":151,"an":152,"Ġin":153,"Ġl":154,"Ġh":155,"as":156,"Ġhe":157,"ĠĠ":158,"Ġn":159,"om":160,"ĠI":161,"Ġha":162,"ic":163,"le":164,"Ġg":165,"Ġbe":166,"hat":167,"ut":168,"Ġe":169,"ot":170,"ion":171,"ow":172,"al":173,"ve":174,"st":175,"id":176,"Ġth":177,"ĠT":178,"im":179,"Ġy":180,"ent":181,"se":182,"ld":183,"ly":184,"Ġ\"":185,"Ġ1":186,"Ġre":187,"Ġthat":188,"Ġu":189,"gh":190,"Ġwas":191,"ĠA":192,"..":193,"ce":194,"ro":195,"et":196,"ay":197,"ith":198,"Ġit":199,"Ġon":200,"Ġyou":201,"ver":202,"Ġfor":203,"ir":204,"Ġwith":205,"ct":206,"Ġwh":207,"ur":208,"ĠS":209,"Ġhis":210,"ad":211,"Ġas":212,"Ġst":213,"ri":214,"ght":215,"Ġwe":216,"ra":217,"Ġan":218,"her":219,"--":220,"Ġis":221,"ĠThe":222,"am":223,"00":224,"ch":225,"Ġhad":226,"Ġnot":227,"ĠH":228,"Ġher":229,"ĠM":230,"ĠĠĠ":231,"oo":232,"ter":233,"Ġat":234,"il":235,"ill":236,"ould":237,"Ġse":238,"Ġk":239,"if":240,"ĠB":241,"ĠC":242,"ation":243,"ĠP":244,"Ġme":245,"ain":246,"Ġsa":247,"Ġhim":248,"ess":249,"'s":250,"th":251,"....":252,"ore":253,"Ġshe":254,"Ġde":255,"ul":256,"ke":257,"ĠW":258,"Ġsu":259,"ĠG":260,"red":261,"Ġ2":262,"pe":263,"99":264,"and":265,"rom":266,"ge":267,"Ġor":268,"all":269,"us":270,"Ġby":271,"ĠL":272,"Ġso":273,"nt":274,"Ġcom":275,"ck":276,"Ġcon":277,"ich":278,"Ġ(":279,"Ġhave":280,"est":281,"Ġall":282,"Ġ0":283,"qu":284,"em":285,".\"":286,"Ġup":287,"Ġr":288,"ight":289,"ĠF":290,"Ġfrom":291,"Ġmy":292,"Ġwhich":293,"Ġwor":294,"Ġne":295,"01":296,"res":297,"ab":298,"Ġv":299,"98":300,"Ġbut":301,"Ġex":302,"ist":303,"31":304,"Ġthis":305,"Ġthey":306,"ant":307,"65":308,"32":309,"37":310,"41":311,"ers":312,"ĠN":313,"op":314,"ate":315,"Ġsaid":316,"42":317,"61":318,"Ġdo":319,"35":320,"47":321,"45":322,"67":323,"Ġsh":324,"02":325,"62":326,"48":327,"Ġwhe":328,"38":329,"97":330,"68":331,"ĠE":332,"ĠD":333,"ust":334,"91":335,"um":336,"ive":337,"Ġwere":338,"ol":339,"95":340,"el":341,"92":342,",\"":343,"art":344,"ect":345,"ous":346,"Ġman":347,"pp":348,"Ġal":349,"ard":350,"Ġare":351,"05":352,"07":353,"ĠO":354,"out":355,"os":356,"08":357,"Ġthem":358,"un":359,"la":360,"ast":361,"Ġpro":362,"ĠHe":363,"ong":364,"ome":365,"ie":366,"ound":367,"Ġab":368,"ood":369,"our":370,"ame":371,"ber":372,"ĠAnd":373,"Ġone":374,"Ġno":375,"one":376,"ig":377,"Ġint":378,"ĠĠĠĠ":379,"Ġkn":380,"ind":381,"ort":382,"od":383,"ity":384,"han":385,"lf":386,"Ġwho":387,"iv":388,"ĠR":389,"very":390,"ell":391,"Ġout":392,"Ġthere":393,"Ġwould":394,"Ġtheir":395,"Ġle":396,"ook":397,"pt":398,"'t":399,"ther":400,"Ġag":401,"ak":402,"Ġsha":403,"Ġ5":404,"ough":405,"ost":406,"ment":407,"ĠJ":408,"ide":409,"own":410,"Ġany":411,"ud":412,"........":413,"itt":414,"Ġbeen":415,"ry":416,"Ġgo":417,"ies":418,"ure":419,"Ġj":420,"Ġwill":421,"ine":422,"Ġ3":423,"Ġun":424,"88":425,"Ġwhen":426,"reat":427,"Ġli":428,"ag":429,"au":430,"ven":431,"Ġfa":432,"Ġfe":433,"hed":434,"Ġ7":435,"cc":436,"43":437,"Ġwork":438,"ci":439,"ake":440,"ep":441,"ass":442,"11":443,"Ġother":444,"Ġar":445,"self":446,"63":447,"Ġcan":448,"22":449,"87":450,"Ġif":451,"way":452,"Ġsp":453,"?\"":454,"Ġyour":455,"ĠIt":456,"ice":457,"ran":458,"Ġcould":459,"85":460,"ff":461,"Ġwhat":462,"Ġqu":463,"03":464,"93":465,"ime":466,"Ġus":467,"Ġinto":468,"Ġro":469,"able":470,"44":471,"pl":472,"Ġmore":473,"ond":474,"ite":475,"15":476,"ject":477,"17":478,"Ġdis":479,"Ġam":480,"Ġabout":481,"per":482,"27":483,"66":484,"25":485,"Ġper":486,"Ġad":487,"ose":488,"Ġupon":489,"urn":490,"fore":491,"ish":492,"ac":493,"ĠU":494,"Ġim":495,"Ġch":496,"ally":497,"ence":498,"Ġsome":499,"ary":500,"Ġye":501,"Ġover":502,"Ġknow":503,"Ġ'":504,"ars":505,"ought":506,"Ġdid":507,"are":508,"Ġen":509,"ings":510,"ove":511,"ru":512,"ĠY":513,"Ġthan":514,"ree":515,"ink":516,"Ġcl":517,"ord":518,"ire":519,"ade":520,"Ġ8":521,"ĠBut":522,"wn":523,"Ġtw":524,"Ġlike":525,"ack":526,"ered":527,"Ġlook":528,"96":529,"ions":530,"94":531,"Ġgr":532,"ble":533,"nder":534,"ap":535,"Ġagain":536,"other":537,"fter":538,"ance":539,"ress":540,"hing":541,"Ġshall":542,"ĠShe":543,"Ġday":544,"ount":545,"ittle":546,"90":547,"Ġ4":548,"Ġsee":549,"Ġhand":550,"ated":551,"Ġtime":552,"Ġpr":553,"Ġbr":554,"Ġvery":555,"ile":556,"ĠTh":557,"ren":558,"ĠIn":559,"Ġlittle":560,"Ġpe":561,"Ġnow":562,"ked":563,"Ġhas":564,"right":565,"77":566,"end":567,"Ġoff":568,"18":569,"Ġpart":570,"Ġsay":571,"ied":572,"age":573,"Ġtoo":574,"ĠPro":575,"ild":576,"ĠMr":577,"ia":578,"64":579,"ull":580,"Ġthen":581,"uten":582,"ather":583,"old":584,"berg":585,"bl":586,"55":587,"12":588,"Ġfl":589,"Ġpl":590,"Ġshould":591,"ved":592,"utenberg":593,"Ġcomp":594,"Ġgreat":595,"!\"":596,"Ġdown":597,"04":598,"ach":599,"ne":600,"oy":601,"Ġunt":602,"Ġonly":603,"Ġcha":604,"ife":605,"oll":606,"Ġbefore":607,"ness":608,"Ġafter":609,"Ġcont":610,"Ġthr":611,"Ġour":612,"ian":613,"33":614,"Ġcame":615,"ng":616,"Ġpre":617,"ĠGutenberg":618,"Ġbl":619,"Ġmay":620,"orn":621,"Ġmade":622,"Ġ18":623,"Ġits":624,"iss":625,"uch":626,"Ġgood":627,"ath":628,"ip":629,"Ġunder":630,"Ġmust":631,"ĠSt":632,"cl":633,"ward":634,"ations":635,"ick":636,"Ġsm":637,"Ġsc":638,"28":639,"av":640,"ces":641,"ĠProject":642,"Ġhow":643,"Ġway":644,"ft":645,"57":646,"Ġrem":647,"Ġlong":648,"06":649,"ue":650,"ious":651,"iz":652,"Ġbec":653,"Ġra":654,"Ġtr":655,"Ġcome":656,"ty":657,"ful":658,"so":659,"hen":660,"Ġfir":661,"Ġres":662,"Ġacc":663,"we":664,"ark":665,"Ġpo":666,"ĠK":667,"Ġ6":668,"ert":669,"Ġtwo":670,"ise":671,"Ġspe":672,"Ġind":673,"ouse":674,"Ġwhere":675,"Ġown":676,"ople":677,"Ġback":678,"Ġsuch":679,"Ġcomm":680,"Ġeven":681,"man":682,"Ġ_":683,"Ġevery":684,"Ġdes":685,"Ġ.":686,"ew":687,"Ġey":688,"),":689,"Ġmuch":690,"Ġbet":691,"int":692,"ons":693,"Ġmen":694,"Ġnever":695,"ult":696,"21":697,"Ġthink":698,"og":699,"Ġold":700,"Ġdon":701,"Ġfirst":702,"ced":703,"lect":704,"rib":705,"ere":706,"Ġthese":707,"Ġwent":708,"Ġgl":709,"ave":710,"ps":711,"Ġpla":712,"Ġmight":713,"ĠV":714,"ily":715,"ried":716,"ign":717,"................":718,"Ġthought":719,"ical":720,"Ġthrough":721,"ph":722,"Ġseem":723,"ĠĠĠĠĠĠĠĠ":724,"Ġdist":725,"ause":726,"Ġimp":727,"ory":728,"orm":729,"ron":730,"Ġpeople":731,"land":732,"Ġwr":733,"Ġpass":734,"Ġte":735,"Ġbeg":736,"----":737,"46":738,"75":739,"ater":740,"13":741,"Ġwell":742,"led":743,"Ġmake":744,"Ġcons":745,"ms":746,"bs":747,"oss":748,"09":749,"erv":750,"ase":751,"Ġrep":752,"Ġke":753,"Ġhimself":754,"Ġmost":755,"Ġlet":756,"Ġget":757,"Ġla":758,"less":759,"Ġjust":760,"oth":761,"Ġaway":762,"Ġ-":763,"ock":764,"Ġunto":765,"igh":766,"tm":767,"Ġturn":768,"Ġwom":769,"Ġear":770,"ĠFor":771,"ens":772,"te":773,"ition":774,"Ġlife":775,"23":776,"ways":777,"oc":778,"Ġhouse":779,"Ġeyes":780,"ĠYou":781,"ĠThey":782,"Ġsl":783,"hes":784,"78":785,"Ġbel":786,"ors":787,"Ġter":788,"Ġapp":789,"Ġword":790,"Ġent":791,"ict":792,"58":793,"ense":794,"Ġatt":795,"Ġfound":796,"ĠThere":797,"ction":798,"ady":799,"mer":800,"Ġcall":801,"Ġhere":802,"du":803,"ever":804,"Ġlast":805,"omet":806,"ĠAs":807,"Ġwithout":808,"ened":809,"Ġhead":810,"ial":811,"ates":812,"ang":813,"000":814,"Ġac":815,"Ġwant":816,"Ġright":817,"OR":818,"ves":819,"49":820,"Ġthings":821,"Ġset":822,"Ġap":823,"Ġmany":824,"ince":825,"here":826,"Ġret":827,"iff":828,"Ġnew":829,"ited":830,"row":831,"und":832,"ĠGod":833,"Ġchild":834,"Ġcar":835,"Ġpres":836,"40":837,"199":838,"Ġem":839,"Ġhar":840,"eth":841,"Ġyears":842,"xt":843,"Ġbeing":844,"60":845,"Ġthose":846,"Ġsaw":847,"alk":848,"ĠCh":849,"ged":850,"Ġcop":851,"Ġface":852,"Ġop":853,"69":854,"ail":855,"ale":856,"pect":857,"Ġ19":858,"Ġcount":859,"ĠIf":860,"Ġtra":861,"Ġtake":862,"Ġthou":863,"ener":864,"Ġput":865,"les":866,"Ġmar":867,"ib":868,"'ll":869,"Ġstill":870,"ving":871,"riend":872,"Ġtell":873,"Ġco":874,"ĠThen":875,"Ġalso":876,"Ġend":877,"ĠThis":878,"Ġref":879,"ower":880,"Ġland":881,"Ġyoung":882,"ted":883,"Ġsomet":884,"Ġ9":885,"Ġlooked":886,"Ġplace":887,"'d":888,"Ġelect":889,"ished":890,"ĠIs":891,"Ġsec":892,"the":893,"14":894,"ible":895,"ared":896,"Ġfriend":897,"ER":898,"ract":899,"Ġnight":900,"ĠAn":901,"Ġsupp":902,"cy":903,"Ġagainst":904,"**":905,"Ġest":906,"Ġever":907,"82":908,"Ġfar":909,"ubl":910,"Ġmean":911,"Ġrec":912,"34":913,"52":914,"atter":915,"Ġwhile":916,"thing":917,"ollow":918,"16":919,"get":920,"ix":921,"cept":922,"ents":923,"ĠWe":924,"hy":925,"Ġform":926,"Ġpers":927,"Ġinf":928,"ret":929,"Ġthing":930,"ures":931,"ace":932,"36":933,"Ġworks":934,"Ġheart":935,"ently":936,"irl":937,"ual":938,"ither":939,"Ġtook":940,"Ġsame":941,"vers":942,"sw":943,"ĠAr":944,"Ġgra":945,"ĠTo":946,"Ġbecause":947,"ĠAl":948,"Ġdisc":949,"ĠSo":950,"72":951,"ning":952,"Ġlove":953,"Ġsw":954,"Ġcour":955,"ĠMrs":956,"ertain":957,"Ġinst":958,"ĠWhen":959,"Ġgive":960,"Ġseemed":961,"tern":962,"cess":963,"Ġob":964,"Ġworld":965,"Ġlight":966,"Ġkm":967,"aking":968,"Ġyet":969,"Ġfather":970,"You":971,"ple":972,"Ġthy":973,"Ġgot":974,"ĠAt":975,"Ġcr":976,"Ġleft":977,"Ġexp":978,"Ġnothing":979,"ss":980,"Ġanother":981,"ribut":982,"rew":983,"Ġthough":984,"ined":985,"30":986,"Ġsub":987,"Ġple":988,"#_":989,"Ġ_#_":990,"19":991,"Ġ199":992,"ody":993,"den":994,"vel":995,"Ġpa":996,"Ġ$":997,"Ġchan":998,"10":999,"sel":1000,"Ġreg":1001,"Ġfollow":1002,"Ġmind":1003,"ric":1004,"ool":1005,"Ġappe":1006,"Ġadd":1007,"Ġhapp":1008,"Ġalways":1009,"ĠUn":1010,"Ġasked":1011,"Ġwoman":1012,"Ġuse":1013,"ative":1014,"ular":1015,"li":1016,"Ġonce":1017,"Ġsat":1018,"Ġroom":1019,"imes":1020,"ived":1021,"Ġwar":1022,"ched":1023,"ments":1024,"Ġgoing":1025,"Ġprodu":1026,"its":1027,"vent":1028,"Ġsur":1029,"clud":1030,"Ġname":1031,"Ġhands":1032,"up":1033,"Ġread":1034,"Ġknew":1035,"Ġmom":1036,"Ġfull":1037,"Ġreturn":1038,"Ġbre":1039,"Ġthree":1040,"Ġho":1041,"Ġlaw":1042,"ks":1043,"Ġfind":1044,"Ġdiff":1045,"Ġposs":1046,"Ġgirl":1047,"Ġtold":1048,"Ġrate":1049,"Ġche":1050,"Ġ12":1051,"Ġside":1052,"Ġansw":1053,"Ġinc":1054,"outh":1055,"Ġrest":1056,"iness":1057,"Ġheard":1058,"med":1059,"ting":1060,"ational":1061,"ublic":1062,"most":1063,"ween":1064,"ĠThat":1065,"Ġmin":1066,"Ġconf":1067,"Ġfell":1068,"aught":1069,"39":1070,"Ġdoor":1071,"81":1072,"Ġocc":1073,"Ġthee":1074,"Ġmother":1075,"elt":1076,"Ġgu":1077,"ities":1078,"ĠHis":1079,"Ġrel":1080,"Ġkind":1081,"ĠLOR":1082,"Ġbo":1083,"ows":1084,"71":1085,"ger":1086,"Ġfeel":1087,"act":1088,"ronic":1089,"Ġcle":1090,"Ġhome":1091,"ner":1092,"Ġvo":1093,"Ġfew":1094,"Ġdays":1095,"Ġsomething":1096,"Ġserv":1097,"Ġgiv":1098,"Ġhel":1099,"Ġbetween":1100,"Ġprov":1101,"%,":1102,"Ġcopy":1103,"Ġcur":1104,"ott":1105,"ement":1106,"Ġlo":1107,"Ġwind":1108,"51":1109,"Ġsil":1110,"pend":1111,".)":1112,"Ġact":1113,"ĠTH":1114,"Ġbu":1115,"26":1116,"ĠDe":1117,"Ġsy":1118,"The":1119,"Ġfore":1120,"ĠLORD":1121,"Ġsmall":1122,"Ġkeep":1123,"ained":1124,"24":1125,"Ġrun":1126,"ĠMar":1127,"ief":1128,"ross":1129,"Ġdone":1130,"Ġmoment":1131,"Ġnor":1132,"ating":1133,"Ġking":1134,"gg":1135,"vern":1136,"air":1137,"not":1138,"be":1139,"Ġnat":1140,"ins":1141,"Ġstr":1142,"Ġturned":1143,"aut":1144,".'":1145,"oun":1146,"Ġelectronic":1147,"Ġeach":1148,"illion":1149,"'ve":1150,"iter":1151,"Ġnear":1152,"ired":1153,"Ġamong":1154,"aint":1155,"ah":1156,"ier":1157,"ised":1158,"me":1159,"73":1160,"Ġwa":1161,"Ġpur":1162,"unt":1163,"Ġmo":1164,"Ġexc":1165,"Ġass":1166,"'m":1167,"der":1168,"ped":1169,"uth":1170,"Ġgener":1171,"Ġsent":1172,"lack":1173,"Ġmon":1174,"Ġchar":1175,"Ġdra":1176,"Ġrece":1177,"Ġeff":1178,"Ġbro":1179,"ĠSe":1180,"Ġhalf":1181,"att":1182,"con":1183,"Ġev":1184,"83":1185,"mb":1186,"Ġpar":1187,"53":1188,"har":1189,"ident":1190,"Ġlar":1191,"Ġtoward":1192,"Ġdec":1193,"ung":1194,"Ġstood":1195,"Ġenough":1196,"Ġbegan":1197,"Ġdef":1198,"Ġhigh":1199,"Ġbetter":1200,"ene":1201,"Ġins":1202,"Ġste":1203,"osed":1204,"Ġseen":1205,"Ġcertain":1206,"Ġbeh":1207,"Ġhard":1208,"Ġinclud":1209,"Ġ10":1210,"Ġcalled":1211,"Ġgave":1212,"ason":1213,"Ġhor":1214,"Ġext":1215,"oney":1216,"ĠOn":1217,"Ġwhite":1218,"laim":1219,"Ġboth":1220,"ister":1221,"Ġinter":1222,",'":1223,"Ġstand":1224,"AR":1225,"Ġwhom":1226,"Ġboy":1227,"Ġchildren":1228,"Ġfam":1229,"Ġtre":1230,"ute":1231,"Ġcare":1232,"de":1233,"Ġfelt":1234,");":1235,"Ġhum":1236,"Ġperson":1237,"Ġ15":1238,"aken":1239,"It":1240,"Ġperf":1241,"ling":1242,"Ġnum":1243,"cial":1244,"ĠBe":1245,"Ġ11":1246,"ub":1247,"EN":1248,"Ġdeath":1249,"Ġalmost":1250,"Ġ17":1251,"ility":1252,"ĠWh":1253,"Ġbus":1254,"atch":1255,"Ġwords":1256,"ĠMiss":1257,"ering":1258,"pped":1259,"Ġhour":1260,"ĠWhat":1261,"20":1262,"ield":1263,"Ġsoon":1264,"Ġson":1265,"Ġwater":1266,"ĠInd":1267,"Ġquite":1268,"86":1269,"198":1270,"Ġart":1271,"Ġhear":1272,"Ġuntil":1273,"orts":1274,"ug":1275,"ific":1276,"Ġbrought":1277,"Ġcourse":1278,"Ġvoice":1279,"Ġsk":1280,"84":1281,"ern":1282,"ection":1283,"54":1284,"Ġca":1285,"Ġbelie":1286,"Ġel":1287,"als":1288,"Ġaff":1289,"29":1290,"Ġless":1291,"Ġpoint":1292,"erest":1293,"iet":1294,"Ġri":1295,"Ġmorn":1296,"Ġed":1297,"Ġvis":1298,"Ġcap":1299,"Ġdel":1300,"Ġneed":1301,"ery":1302,"Ġpleas":1303,"89":1304,"Ġherself":1305,"oke":1306,"reet":1307,"76":1308,"Ġ[":1309,"ution":1310,"selves":1311,"ream":1312,"Ġreal":1313,"Ġwond":1314,"raph":1315,"ural":1316,"que":1317,"omm":1318,"Ġearth":1319,"ully":1320,"ulation":1321,"Ġheld":1322,"Ġmoney":1323,"56":1324,"rans":1325,"Ġused":1326,"Ġcontin":1327,"Ġser":1328,"oud":1329,"ĠRe":1330,"Ġ`":1331,"ĠLe":1332,"Ġsince":1333,"Ġmatter":1334,"ines":1335,"Ġdoes":1336,"Ġbest":1337,"ank":1338,"Ġunderst":1339,"az":1340,"Ġanything":1341,"Ġcountry":1342,"74":1343,"Ġmorning":1344,"Ġyear":1345,"Ġforth":1346,"Ġpri":1347,"Ġhold":1348,"Ġopen":1349,"Ġdark":1350,"Ġpower":1351,"Ġsure":1352,"aster":1353,"Ġdistribut":1354,"ized":1355,"Ġsle":1356,"Ġfree":1357,"ken":1358,"Ġ&":1359,"owed":1360,"Ġdep":1361,"Ġblack":1362,"hil":1363,"Ġ198":1364,"Ġtalk":1365,"--------":1366,"Ġair":1367,"Ġprom":1368,"Ġinterest":1369,"Ġround":1370,"sh":1371,"ains":1372,"of":1373,"ote":1374,"ages":1375,"ĠFound":1376,"Ġstran":1377,"uring":1378,"rist":1379,"Ġfact":1380,"ĠLord":1381,"ude":1382,"Ġma":1383,"Ġagre":1384,"Ġred":1385,"ans":1386,"ĠEng":1387,"rit":1388,"Ġinde":1389,"ĠFoundation":1390,"oot":1391,"50":1392,"haps":1393,"Ġfin":1394,"Ġmyself":1395,"Ġdire":1396,"Ġwhole":1397,"Ġsim":1398,"Ġhaving":1399,"oul":1400,"Ġhelp":1401,"Ġdet":1402,"ĠWith":1403,"ured":1404,"Ġgrow":1405,"Ġmet":1406,"gether":1407,"Ġtogether":1408,"Ġes":1409,"ird":1410,"Ġfall":1411,"Ġprop":1412,"Ġrather":1413,"Ġtrans":1414,"ob":1415,"iew":1416,"ided":1417,"Ġcried":1418,"Ġdou":1419,"Ġlay":1420,"Ġpop":1421,"bt":1422,"ĠHer":1423,"Ġbook":1424,"Ġterms":1425,"ON":1426,"ma":1427,"Ġplay":1428,"Ġlarge":1429,"Ġlau":1430,"Ġsun":1431,"Ġadm":1432,"ont":1433,"Ġequ":1434,"ants":1435,"Ġwithin":1436,"ually":1437,"ately":1438,"fully":1439,"ane":1440,"ash":1441,"Ġaw":1442,"iting":1443,"Ġbeaut":1444,"Ġtru":1445,"AN":1446,"Ġadv":1447,"Ġtot":1448,"What":1449,"arn":1450,"70":1451,"ES":1452,"Ġpol":1453,"ten":1454,"ĠJo":1455,"Ġgone":1456,"Ġpublic":1457,"ressed":1458,"Ġsing":1459,"Ġgiven":1460,"ably":1461,"Ġpoor":1462,"Ġnext":1463,"Ġquest":1464,"any":1465,"ember":1466,"Ġinv":1467,"iles":1468,"Ġarm":1469,"Ġopp":1470,"dden":1471,"ĠChrist":1472,"ring":1473,"ached":1474,"ĠNow":1475,"ork":1476,"Ġlive":1477,"ton":1478,"Ġcond":1479,"vernment":1480,"ĠOf":1481,"ices":1482,"aring":1483,"used":1484,"Ġeas":1485,"59":1486,"Ġexpl":1487,"Ġdr":1488,"Oh":1489,"read":1490,"AT":1491,"Ġtaken":1492,"conom":1493,"ission":1494,"Ġshort":1495,"ches":1496,"79":1497,"day":1498,"80":1499,"Ġir":1500,"obs":1501,"Ġcent":1502,"Ġswe":1503,"ek":1504,"ats":1505,"Ġcannot":1506,"Ġsudden":1507,"mber":1508,"iled":1509,"undred":1510,"plied":1511,"ĠAll":1512,"Ġalong":1513,"ued":1514,"ĠPr":1515,"Ġstart":1516,"Ġothers":1517,"Ġspeak":1518,"amp":1519,"Ġbed":1520,"Ġhope":1521,"Ġide":1522,"Ġdead":1523,"Ġalone":1524,"ĠNew":1525,"Ġstrong":1526,"Ġfour":1527,"ives":1528,"ĠUS":1529,"ey":1530,"Ġrequ":1531,"Ġwife":1532,"ĠHow":1533,"uck":1534,"ĠEx":1535,"Ġsuff":1536,"Ġsecond":1537,"men":1538,"Ġhundred":1539,"ider":1540,"Ġfire":1541,"ries":1542,"Ġfeet":1543,"Ġcol":1544,"to":1545,"Ġpresent":1546,"Ġtotal":1547,"Ġconst":1548,"Ġlooking":1549,"Yes":1550,"Ġtem":1551,"ury":1552,"Ġpay":1553,"Ġcor":1554,"'re":1555,"Ġ13":1556,"Ġhowever":1557,"Ġlead":1558,"lish":1559,"ts":1560,"cha":1561,"ention":1562,"Ġreason":1563,"Well":1564,"Ġstate":1565,"ĠTHE":1566,"ides":1567,"uff":1568,"Ġthemselves":1569,"Ġ--":1570,"ĠNor":1571,"Ġabove":1572,"Ġletter":1573,"Ġpassed":1574,"IS":1575,"Ġnone":1576,"IN":1577,"Ġtill":1578,"Ġmod":1579,"stem":1580,"Ġwood":1581,"Ġhath":1582,"pr":1583,"Ġbehind":1584,"ĠNA":1585,"Ġdro":1586,"cious":1587,"Ġanswered":1588,"Ġdiv":1589,"Ġill":1590,"Ġconc":1591,"aven":1592,"Ġcity":1593,"But":1594,"Ġstra":1595,"Ġsea":1596,"II":1597,"And":1598,"atic":1599,"Ġbring":1600,"ĠAd":1601,"Ġsn":1602,"ĠZ":1603,"IT":1604,"ased":1605,"ax":1606,"Ġsound":1607,"ying":1608,"ĠNo":1609,"akes":1610,"Ġknown":1611,"Ġmeet":1612,"use":1613,"alked":1614,"Ġmillion":1615,"Ġlab":1616,"rig":1617,"Ġunderstand":1618,"Ġdeep":1619,"by":1620,"Ġbelieve":1621,"Ġhon":1622,"Ġwhose":1623,"Ġleast":1624,"Ġbra":1625,"ison":1626,"Ġleg":1627,"ĠFran":1628,"Ġunc":1629,"fort":1630,"Ġcoll":1631,"Ġsch":1632,"Ġask":1633,"Ġthus":1634,"mp":1635,"Ġagreement":1636,"eren":1637,"Ġgent":1638,"meric":1639,"Ġran":1640,"Ġobs":1641,"Ġreplied":1642,"irc":1643,"Ġmis":1644,"gth":1645,"illed":1646,"Ġprof":1647,"Ġgold":1648,"Ġclose":1649,"No":1650,"Ġpast":1651,"Ġwhy":1652,"Ġ14":1653,"Ġmount":1654,"rie":1655,"Ġwomen":1656,"ium":1657,"Ġbusiness":1658,"Ġoften":1659,"Ġlist":1660,"Ġgre":1661,"arch":1662,"Ġground":1663,"Ġreally":1664,"Ġstop":1665,"ĠStates":1666,"Ġhast":1667,"Ġsystem":1668,"Ġtimes":1669,"Ġdear":1670,"Ġsaying":1671,"Ġ16":1672,"++":1673,"ceed":1674,"Ġexpect":1675,"Ġsign":1676,"ousand":1677,"001":1678,"Ġdri":1679,"iving":1680,"ths":1681,"ĠSc":1682,"oon":1683,"Ġmid":1684,"Ġtown":1685,"rying":1686,"Ġmer":1687,"Ġprin":1688,"Ġspir":1689,"Ġcreat":1690,"ĠMy":1691,"org":1692,"omp":1693,"ec":1694,"Ġsoul":1695,"Ġtrue":1696,"erent":1697,"Ġwish":1698,"Ġfur":1699,"ught":1700,"aw":1701,"uc":1702,"hn":1703,"ĠOF":1704,"OU":1705,"Ġbur":1706,"osition":1707,"Ġnumber":1708,"Ġlow":1709,"Ġcommand":1710,"Ġjud":1711,"Ġwalk":1712,"ital":1713,"Ġbrother":1714,"Ġfear":1715,"Ġbody":1716,"Ġthousand":1717,"ready":1718,"Ġpret":1719,"Ġabs":1720,"body":1721,"ina":1722,"une":1723,",--":1724,"ones":1725,"enty":1726,"007":1727,"Ġmeans":1728,"Ġpartic":1729,"Ġbes":1730,"Ġvol":1731,"Ġstru":1732,"Ġten":1733,"ism":1734,".,":1735,"ploy":1736,"that":1737,"itted":1738,"Ġ31":1739,"Ġaccount":1740,"overed":1741,"Ġfair":1742,"Ġdidn":1743,"ony":1744,"ĠAmeric":1745,"ctor":1746,"Ġage":1747,"ormation":1748,"Ġcoming":1749,"ĠUnited":1750,"Ġ20":1751,"Ġhus":1752,"ĠCl":1753,"ient":1754,"ĠIN":1755,"Ġsum":1756,"Ġelse":1757,"ĠSp":1758,"oint":1759,"Ġcase":1760,"ney":1761,"Ġleave":1762,"Ġ42":1763,"Ġsit":1764,"side":1765,"Ġbegin":1766,"Ġsever":1767,"Ġtri":1768,"ĠPhil":1769,"Ġwall":1770,"Ġdest":1771,"Ġloc":1772,"Ġdem":1773,"Ġmed":1774,"orrow":1775,"Ġnecess":1776,"ĠCha":1777,"Ġquick":1778,"Ġdev":1779,"Ġclear":1780,"Ġ45":1781,"Ġalready":1782,"ee":1783,"Ġ*":1784,"Ġsubject":1785,"Ġpopulation":1786,"Ġwonder":1787,"Ġquestion":1788,"ists":1789,"Ġaround":1790,"iful":1791,"Book":1792,"Ġcirc":1793,"Ġbig":1794,"ĠNational":1795,"005":1796,"ience":1797,"Ġlim":1798,"Ġshow":1799,"ĠCon":1800,"rael":1801,"ination":1802,"Ġ32":1803,"Ġdoubt":1804,"Ġwild":1805,"Ġperhaps":1806,"lt":1807,"Ġpossess":1808,"Ġbecame":1809,"Ġgentle":1810,"Ġindeed":1811,"ues":1812,"ified":1813,"band":1814,"Ġproper":1815,"Ġhur":1816,"ĠIsrael":1817,"Ġeither":1818,"Ġdom":1819,"Ġaccord":1820,"Ġsight":1821,"Ġhair":1822,"Ġ41":1823,"Ġstrange":1824,"ĠOne":1825,"Ġvar":1826,"ĠArch":1827,"Ġseveral":1828,"oor":1829,"ards":1830,"ront":1831,"Ġappro":1832,"aughter":1833,"Ġimport":1834,"ality":1835,"ames":1836,"ĠLiter":1837,"Ġblood":1838,"008":1839,"ĠĠĠĠĠĠĠĠĠĠĠĠĠĠĠĠ":1840,"empt":1841,"Ġfive":1842,"Ġroad":1843,"Ġ35":1844,"cing":1845,"Ġbound":1846,"002":1847,"Ġsol":1848,"Ġkept":1849,"Ġlost":1850,"Ġaccess":1851,"Ġcharact":1852,"Ġincluding":1853,"Ġconsider":1854,"ham":1855,"ex":1856,"ĠAb":1857,"Ġtrou":1858,"ended":1859,"ining":1860,"Ġfamily":1861,"Ġfriends":1862,"Ġwon":1863,"Ġcast":1864,"utes":1865,"Ġview":1866,"Ġresult":1867,"Ġorder":1868,"ety":1869,"RE":1870,"Ġhuman":1871,"Ġstreet":1872,"Ġitself":1873,"ĠJohn":1874,"ize":1875,"ĠCar":1876,"ram":1877,"Ġperm":1878,"uss":1879,"ĠX":1880,"itions":1881,"CT":1882,"Ġevening":1883,"Ġbran":1884,"ny":1885,"gr":1886,"Ġexper":1887,"ĠBy":1888,"Ġhorse":1889,"ĠDo":1890,"resent":1891,"ances":1892,"ets":1893,"Ġcorn":1894,"Ġlearn":1895,"Ġreceived":1896,"ingly":1897,"Ġsix":1898,"urch":1899,"Ġacross":1900,"but":1901,"0000":1902,"ĠPer":1903,"Ġsays":1904,"Ġstud":1905,"Ġdirect":1906,"dle":1907,"Ġhusband":1908,"Ġreturned":1909,"........................":1910,"itten":1911,"Ġdifferent":1912,"olog":1913,"Ġtable":1914,"Ġ{":1915,"Ġparticular":1916,"Ġpat":1917,"br":1918,"Ġtou":1919,"Ġsleep":1920,"bit":1921,"ression":1922,"003":1923,"icense":1924,"Ġbit":1925,"Ġtrad":1926,"Ġforce":1927,"Ġprep":1928,"Ġ38":1929,"...":1930,"rench":1931,"Ġcommon":1932,"fe":1933,"ising":1934,"ccess":1935,"Ġeffect":1936,"for":1937,"soci":1938,"He":1939,"Ġbad":1940,"Ġ37":1941,"ĠEnglish":1942,"Ġ24":1943,"ĠUN":1944,"lands":1945,"io":1946,"ĠNe":1947,"Ġeng":1948,"Ġ197":1949,"iously":1950,"Ġ48":1951,"attle":1952,"Ġsort":1953,"Ġsense":1954,"gy":1955,"Ġbar":1956,"iam":1957,"itting":1958,"Ġlady":1959,"ned":1960,"Ġwanted":1961,"Ġ188":1962,"ĠQ":1963,"Ġ47":1964,"Ġfoot":1965,"ĠAfter":1966,"Ġtherefore":1967,"Ġpain":1968,"Ġve":1969,"--\"":1970,"Ġaf":1971,"where":1972,"alt":1973,"Ġbecome":1974,"bed":1975,").":1976,"015":1977,"cul":1978,"Ġmanner":1979,"ĠGo":1980,"hold":1981,"Ġord":1982,"unic":1983,"son":1984,"012":1985,"Ġoffic":1986,"Ġcal":1987,"over":1988,"king":1989,"cri":1990,"Ġpost":1991,"Ġaccept":1992,"Ġsoft":1993,"avy":1994,"Ġarms":1995,"017":1996,"illy":1997,"Ġappear":1998,"sp":1999,"ges":2000,"Ġph":2001,"Ġcut":2002,"Ġ25":2003,"Ġfig":2004,"ley":2005,"Ġcopyright":2006,"Ġstat":2007,"oman":2008,"Ġgeneral":2009,"ĠEl":2010,"Ġstay":2011,"Ġav":2012,"che":2013,"angu":2014,"Ġrose":2015,"Ġ65":2016,"Ġmaking":2017,"crib":2018,"ĠĠĠĠĠĠ":2019,"Ġwhether":2020,"Ġcomple":2021,"room":2022,"Ġdisp":2023,"Ġ00":2024,"ĠComm":2025,"Ġfre":2026,"ĠeBook":2027,"Ġ23":2028,"aining":2029,"ĠAm":2030,"Ġglad":2031,"Ġslow":2032,"Ġship":2033,"agraph":2034,"ho":2035,"Ġprot":2036,"arty":2037,"ored":2038,"Ġfine":2039,"Ġut":2040,"ĠOr":2041,"Ġparagraph":2042,"Ġ99":2043,"Ġ85":2044,"ĠPe":2045,"Ġwatch":2046,"Ġexam":2047,"Ġeye":2048,"Ġfight":2049,"That":2050,"Ġproduct":2051,"ush":2052,"US":2053,"ging":2054,"lled":2055,"Ġable":2056,"ED":2057,"Ġchief":2058,"Ġet":2059,"Ġfort":2060,"Ġtruth":2061,"TER":2062,"Ġeconom":2063,"Ġanswer":2064,"Ġfood":2065,"Ġsla":2066,"Ġcold":2067,"Ġquiet":2068,"011":2069,"co":2070,"Ġ62":2071,"Ġmine":2072,"ites":2073,"Ġmere":2074,"Ġ21":2075,"Ġlater":2076,"Ġstep":2077,"alth":2078,"erm":2079,"Ġself":2080,"night":2081,"oura":2082,"iding":2083,"Ġcause":2084,"Ġpract":2085,"ster":2086,"Ġimag":2087,"Ġeverything":2088,"Ġcharacter":2089,"gan":2090,"Ġsuddenly":2091,"Ġbreat":2092,"medi":2093,"Ġstory":2094,"asion":2095,"bled":2096,"Ġfollowed":2097,"Ġduring":2098,"Ġsend":2099,"Ġmaster":2100,"018":2101,"Ġdream":2102,"ĠGe":2103,"ivid":2104,"ze":2105,"ĠKing":2106,"ilt":2107,"rop":2108,"Ġforg":2109,"Ġspirit":2110,"Ġidea":2111,"],":2112,"AL":2113,"Ġcra":2114,"Ġfollowing":2115,"ĠLiterary":2116,"Ġneither":2117,"Ġval":2118,"ivers":2119,"004":2120,"els":2121,"Ġobject":2122,"icked":2123,"Ġrepresent":2124,"Ġstri":2125,"ĠArchive":2126,"Ġmouth":2127,"head":2128,"Ġsir":2129,"Ġbeautiful":2130,"Ġbir":2131,"Ġ26":2132,"ral":2133,"Ġ61":2134,"Ġcomput":2135,"027":2136,"Ġ22":2137,"Ġnature":2138,"Ġled":2139,"Ġparty":2140,"ians":2141,"Ġ``":2142,"Ġ68":2143,"Ġemploy":2144,"ĠWill":2145,"ĠHar":2146,"Ġtwenty":2147,"let":2148,"itude":2149,"Ġgovernment":2150,"Ġwindow":2151,"Ġsuccess":2152,"AS":2153,"Ġschool":2154,"Ġhot":2155,"Ġmag":2156,"Ġmus":2157,"Ġmur":2158,"Ġfield":2159,"Ġdraw":2160,"ature":2161,"AP":2162,"427":2163,"Ġexcept":2164,"Ġlaws":2165,"032":2166,"Ġbreak":2167,"erence":2168,"Ġer":2169,"Ġarea":2170,"velop":2171,"Ġcontinued":2172,"Ġpaid":2173,"ĠFrench":2174,"ters":2175,"Ġrespect":2176,"Ġeat":2177,"laimed":2178,"025":2179,"Ġpossible":2180,"ically":2181,"Ġperfect":2182,"Ġ67":2183,"Ġremember":2184,"Ġsurpr":2185,"Ġassoci":2186,"ĠAf":2187,"Ġpurp":2188,"isf":2189,"eter":2190,"roy":2191,"Ġmil":2192,"ift":2193,"Ġnatural":2194,"ots":2195,"Ġspoke":2196,"Ġ27":2197,"dom":2198,"Ġfront":2199,"013":2200,"cil":2201,"ĠAN":2202,"Ġ88":2203,"ĠBar":2204,"ĠPres":2205,"arent":2206,"006":2207,"Ġsecret":2208,"Ġtele":2209,"Ġdiffic":2210,"idence":2211,"ead":2212,"cent":2213,"antly":2214,"itical":2215,"Ġworth":2216,"aul":2217,"Ġchange":2218,"Ġhill":2219,"Ġwat":2220,"what":2221,"yond":2222,"031":2223,"Ġnote":2224,"Ġbene":2225,"Ġleav":2226,"ĠCH":2227,"Ġcharge":2228,"917":2229,"Ġsuppose":2230,"957":2231,"Ġservice":2232,"Ġhappy":2233,"inal":2234,"Ġwritten":2235,"Ġreached":2236,"Ġobt":2237,"Ġchair":2238,"Ġwin":2239,"Ġmove":2240,"Ġele":2241,"line":2242,"Ġought":2243,"Ġmist":2244,"Ġce":2245,"uthor":2246,"ĠFrom":2247,"ump":2248,"rupt":2249,"tt":2250,"927":2251,"Ġesc":2252,"airs":2253,"197":2254,"Ġfellow":2255,"apt":2256,"357":2257,"Ġdeal":2258,"627":2259,"raid":2260,"Ġvisit":2261,"ushed":2262,"Ġ:":2263,"Ġdaughter":2264,"Ġdonations":2265,"well":2266,"Ġline":2267,"Ġcapt":2268,"ĠAg":2269,"Ġlonger":2270,"ae":2271,"Ġready":2272,"ĠBr":2273,"Ġ98":2274,"Ġbillion":2275,"022":2276,"Ġpray":2277,"?'":2278,"657":2279,"955":2280,"ĠNot":2281,"ior":2282,"Ġopened":2283,"IC":2284,"Ġpict":2285,"Ġwalked":2286,"Ġrev":2287,"Ġstren":2288,"Ġimmedi":2289,"go":2290,"Ġ187":2291,"ancy":2292,"009":2293,"irt":2294,"Ġgreen":2295,"Ġblue":2296,"Ġspo":2297,"Ġliving":2298,"Ġbright":2299,"Ġslight":2300,"Ġagree":2301,"Ġforward":2302,"Ġgrowth":2303,"038":2304,"Ġder":2305,"Ġoccup":2306,"Ġdrink":2307,"Ġport":2308,"457":2309,"iar":2310,"Ġpie":2311,"Ġlaugh":2312,"you":2313,"Ġcost":2314,"Ġearly":2315,"ror":2316,"Why":2317,"Ġ87":2318,"ously":2319,"Ġbuild":2320,"ls":2321,"021":2322,"Ġdang":2323,"Ġann":2324,"Ġcre":2325,"Ġtried":2326,"915":2327,"Ġorig":2328,"Ġfav":2329,"485":2330,"028":2331,"Ġcarried":2332,"oes":2333,"Ġappeared":2334,"617":2335,"Ġru":2336,"ĠSir":2337,"otion":2338,"Ġclot":2339,"aged":2340,"014":2341,"lace":2342,"itation":2343,"477":2344,"625":2345,"687":2346,"Ġcross":2347,"Ġlad":2348,"ners":2349,"417":2350,"Ġsweet":2351,"Ġ97":2352,"Ġforest":2353,"677":2354,"ics":2355,"Ġplain":2356,"Ġ92":2357,"owers":2358,"ghed":2359,"We":2360,"Ġafraid":2361,"037":2362,"Ġpaper":2363,"DP":2364,"Ġsister":2365,"Ġacqu":2366,"itution":2367,"Ġentire":2368,"Ġentered":2369,"Ġund":2370,"Ġbelow":2371,"Ġprob":2372,"Ġscar":2373,"Ġriver":2374,"Ġty":2375,"RO":2376,"Ġoccasion":2377,"487":2378,"ĠDav":2379,"Ġ28":2380,"Ġcompl":2381,"Ġfeeling":2382,"Ġver":2383,"077":2384,"ledge":2385,"Ġprinci":2386,"ius":2387,"Ġincre":2388,"Ġshad":2389,"ape":2390,"Ġvi":2391,"Ġprog":2392,"ww":2393,"659":2394,"];":2395,"itary":2396,"Ġsuper":2397,"ray":2398,"Ġdoing":2399,"Ġhours":2400,"inary":2401,"ĠJud":2402,"Ġ30":2403,"Ġwit":2404,"Ġbranch":2405,"oose":2406,"Ġlate":2407,"AD":2408,"Ġheaven":2409,"Ġbeyond":2410,"655":2411,"Ġfurther":2412,"327":2413,"Ġclass":2414,"615":2415,"Ġborn":2416,"ected":2417,"erved":2418,"iod":2419,"Ġgard":2420,"Ġpriv":2421,"like":2422,"riage":2423,"Ġinfl":2424,"Ġpen":2425,"val":2426,"ricult":2427,"425":2428,"057":2429,"325":2430,"ĠRep":2431,"675":2432,"Ġtreat":2433,"Ġfaith":2434,"Ġpeace":2435,"****":2436,"ĠParty":2437,"rent":2438,"Ġlived":2439,"iling":2440,"Ġalt":2441,"Ġsatisf":2442,"Ġthir":2443,"Ġfee":2444,"317":2445,"455":2446,"Ġtowards":2447,"Ġdepart":2448,"uro":2449,"387":2450,"Ġseems":2451,"ggest":2452,"ĠGu":2453,"cially":2454,"Ġrock":2455,"Ġtrees":2456,"Ġregard":2457,"Ġadded":2458,"Ġlie":2459,"Ġpal":2460,"ĠThese":2461,"Ġchance":2462,"Ġgrou":2463,"925":2464,"Ġperform":2465,"Ġnearly":2466,"ĠPar":2467,"Ġcrow":2468,"041":2469,"Ġhat":2470,"918":2471,"Ġoutside":2472,"Ġ95":2473,"Ġfut":2474,"inct":2475,"087":2476,"Ġpretty":2477,"Ġlaughed":2478,"Ġsold":2479,"Ġsometimes":2480,"Ġdress":2481,"Ġsuggest":2482,"1990":2483,"EL":2484,"377":2485,"Ġjoy":2486,"ening":2487,"475":2488,"Ġfool":2489,"eral":2490,"685":2491,"016":2492,"Ġgod":2493,"Ġreach":2494,"ĠMan":2495,"Ġfast":2496,"355":2497,"ĠSome":2498,"458":2499,"Ġindivid":2500,"Ġauthor":2501,"iment":2502,"075":2503,"Ġmark":2504,"Ġanim":2505,"IL":2506,"Ġmach":2507,"ĠSouth":2508,"ĠThus":2509,"ĠMa":2510,"Ġweek":2511,"ĠChar":2512,"987":2513,"375":2514,"!'":2515,"Ġlaid":2516,"UT":2517,"658":2518,"977":2519,"Ġsupport":2520,"though":2521,"023":2522,"Ġdied":2523,"If":2524,"ien":2525,"Ġtree":2526,"ĠInf":2527,"athe":2528,"Ġfif":2529,"Ġindividual":2530,"----------------":2531,"Ġtaking":2532,"Ġang":2533,"315":2534,"024":2535,"010":2536,"328":2537,"dd":2538,"reme":2539,"688":2540,"ipp":2541,"Ġcry":2542,"Ġyell":2543,"ivil":2544,"ogn":2545,"ĠDavid":2546,"Ġwide":2547,"ship":2548,"ighb":2549,"Ġlabor":2550,"Ġdrew":2551,"622":2552,"Ġtax":2553,"ator":2554,"cean":2555,"Ġenc":2556,"Ġstraight":2557,"ament":2558,"Ġoffice":2559,"ĠDr":2560,"Ġsilence":2561,"ĠWhy":2562,"Ġquar":2563,"Ġlips":2564,"Ġtop":2565,"Ġiron":2566,"emark":2567,"iah":2568,"erve":2569,"play":2570,"Ġsin":2571,"Ġdie":2572,"Ġaccording":2573,"Ġsave":2574,"488":2575,"Ġenem":2576,"Ġemb":2577,"Ġdam":2578,"na":2579,"ply":2580,"uct":2581,"099":2582,"958":2583,"Ġconvers":2584,"358":2585,"Ġsad":2586,"385":2587,"Ġestab":2588,"hys":2589,"usion":2590,"618":2591,"ĠWas":2592,"628":2593,"Ġ43":2594,"erman":2595,"Ġ44":2596,"ils":2597,"ision":2598,"eneral":2599,"hi":2600,"amed":2601,"Ġhappened":2602,"952":2603,"Ġ91":2604,"ĠWhere":2605,"Ġarri":2606,"Th":2607,"ming":2608,"Ġwhis":2609,"Ġshalt":2610,"Ġintell":2611,"Ġbear":2612,"Ġchurch":2613,"idge":2614,"Ġdoll":2615,"vere":2616,"Ġcompan":2617,"Ġdesp":2618,"isted":2619,"acy":2620,"ĠLicense":2621,"wh":2622,"478":2623,"ĠCol":2624,"Ġinformation":2625,"Ġpriest":2626,"Ġmad":2627,"415":2628,"Ġthinking":2629,"078":2630,"Ġcomfort":2631,"ĠHere":2632,"Ġrunways":2633,"cient":2634,"085":2635,"Ġda":2636,"Ġhist":2637,"Ġdelight":2638,"Ġclaim":2639,"Ġdanger":2640,"imate":2641,"Ġrepe":2642,"942":2643,"ustom":2644,"Ġneighb":2645,"Ġfing":2646,"055":2647,"min":2648,"ĠCan":2649,"Ġtry":2650,"Ġsett":2651,"042":2652,"Ġexpend":2653,"ĠAnne":2654,"mon":2655,"985":2656,"zan":2657,"Ġdevelop":2658,"Ġsens":2659,"Ġprocess":2660,"anced":2661,"ases":2662,"Ġtrouble":2663,"reg":2664,"mbers":2665,"ĠLet":2666,"Ġwrong":2667,"Ġdog":2668,"Ġaddress":2669,"318":2670,"ĠTer":2671,"Ġstrength":2672,"Ġcircum":2673,"ories":2674,"ustri":2675,"isions":2676,"Ġsqu":2677,"iver":2678,"cend":2679,"Ġdeterm":2680,"Ġyourself":2681,"ĠAmerican":2682,"urope":2683,"istr":2684,"ĠState":2685,"ortun":2686,"Ġfish":2687,"418":2688,"ability":2689,"Ġspec":2690,"oved":2691,"Ġsmile":2692,"928":2693,"Ġsal":2694,"light":2695,"678":2696,"378":2697,"Ġjo":2698,"Ġminutes":2699,"097":2700,"Ġago":2701,"Ġbeside":2702,"bo":2703,"Ġwrite":2704,"owing":2705,"Ġformer":2706,"Ġpurpose":2707,"Ġcrowd":2708,"612":2709,"Ġbeginning":2710,"ixed":2711,"Ġposition":2712,"emb":2713,"Ġplan":2714,"482":2715,"ĠFrance":2716,"Ġstopped":2717,"Ġcompany":2718,"ask":2719,"633":2720,"eness":2721,"ager":2722,"Ġfuture":2723,"ĠEurope":2724,"912":2725,"035":2726,"Ġknowledge":2727,"ĠPhilip":2728,"Ġvill":2729,"388":2730,"Ġattempt":2731,"611":2732,"088":2733,"Ġlord":2734,"Ġpleasure":2735,"ondon":2736,"699":2737,"There":2738,"Ġcro":2739,"ĠMay":2740,"rs":2741,"Ġdin":2742,"ocr":2743,"Ġimportant":2744,"pecially":2745,"Ġevil":2746,"oses":2747,"ciety":2748,"499":2749,"Ġviol":2750,"Ġhy":2751,"Ġgrand":2752,"Ġyes":2753,"ĠYOU":2754,"Ġyouth":2755,"Ġeasy":2756,"Ġmeant":2757,"058":2758,"Ġnar":2759,"Ġdisplay":2760,"911":2761,"019":2762,"iance":2763,"ĠEm":2764,"bert":2765,"Ġnecessary":2766,"Ġfra":2767,"1991":2768,"isc":2769,"ograph":2770,"051":2771,"Ġconv":2772,"921":2773,"resh":2774,"Ġteleph":2775,"Ġexclaimed":2776,"oe":2777,"Ġprovide":2778,"ĠAp":2779,"922":2780,"Ġlif":2781,"Ġbehold":2782,"Ġdeg":2783,"Ġcomply":2784,"Ġtrust":2785,"Ġassociated":2786,"472":2787,"951":2788,"Ġheavy":2789,"how":2790,"Ġfloor":2791,"par":2792,"033":2793,"672":2794,"Ġlen":2795,"app":2796,"road":2797,"Ġshar":2798,"ĠBilly":2799,"312":2800,"ĠAfric":2801,"435":2802,"Ġfun":2803,"Ġpath":2804,"How":2805,"Ġsitting":2806,"ively":2807,"Ġslowly":2808,"652":2809,"wards":2810,"rible":2811,"work":2812,"ĠJer":2813,"Ġhost":2814,"Ġpet":2815,"412":2816,"Ġoccur":2817,"Ġmakes":2818,"hange":2819,"Ġtrademark":2820,"ocked":2821,"hood":2822,"372":2823,"497":2824,"Ġdestroy":2825,"Ġ185":2826,"026":2827,"621":2828,"Ġstanding":2829,"1992":2830,"ĠMad":2831,"Ġrich":2832,"Ġbroad":2833,"Ġphys":2834,"she":2835,"Ġcoun":2836,"ples":2837,"ike":2838,"ĠWell":2839,"098":2840,"Ġcaught":2841,"ĠDor":2842,"Ġgetting":2843,"hern":2844,"my":2845,"sequ":2846,"Ġrecogn":2847,"Ġbroken":2848,"ternal":2849,"Ġgrew":2850,"452":2851,"orge":2852,"681":2853,"682":2854,"amb":2855,"ĠEngland":2856,"My":2857,"Ġsouth":2858,"Ġmoved":2859,"uly":2860,"948":2861,"653":2862,"052":2863,"ĠGeneral":2864,"Ġperman":2865,"eks":2866,"==":2867,"ĠTar":2868,"451":2869,"Ġsons":2870,"Ġburn":2871,"933":2872,"AC":2873,"face":2874,"Ġden":2875,"ption":2876,"ĠGerman":2877,"Ġcountries":2878,"ler":2879,"Ġfem":2880,"Ġwouldn":2881,"lo":2882,"428":2883,"ara":2884,"urg":2885,"hip":2886,"hard":2887,"ĠLondon":2888,"Ġresp":2889,"904":2890,"Ġsword":2891,"382":2892,"Ġcomes":2893,"471":2894,"ays":2895,"072":2896,"Ġglass":2897,"iction":2898,"iant":2899,"Ġhop":2900,"ĠEst":2901,"bling":2902,"Ġloved":2903,"oured":2904,"Ġhig":2905,"++++":2906,"ĠHen":2907,"Ġeight":2908,"Ġattention":2909,"Ġappl":2910,"iced":2911,"Ġremark":2912,"Ġinqu":2913,"Ġ29":2914,"913":2915,"Ġperiod":2916,"Ġexact":2917,"623":2918,"Ġfilled":2919,"671":2920,"ĠGDP":2921,"Ġdemand":2922,"Ġgarden":2923,"Ġcamp":2924,"421":2925,"Ġmem":2926,"osp":2927,"Ġmess":2928,"673":2929,"048":2930,"651":2931,"ours":2932,"Ġwarm":2933,"Ġfla":2934,"ĠPaul":2935,"371":2936,"697":2937,"Ġreceive":2938,"Ġbott":2939,"ita":2940,"ague":2941,"ounded":2942,"kes":2943,"Ġobl":2944,"ĠWest":2945,"Ġremained":2946,"632":2947,"Ġhung":2948,"Ġfigure":2949,"Ġcertainly":2950,"Ġgentleman":2951,"ĠLand":2952,"rand":2953,"Ġprison":2954,"Ġnorth":2955,"Ġlangu":2956,"Ġtrem":2957,"Ġaftern":2958,"Ġproperty":2959,"Ġmain":2960,"Ġbreath":2961,"Ġremain":2962,"Ġtouch":2963,"Ġweak":2964,"ĠMin":2965,"439":2966,"oly":2967,"311":2968,"Ġcourt":2969,"sy":2970,"joy":2971,"Ġfat":2972,"gar":2973,"Ġstarted":2974,"Ġstruck":2975,"ĠOh":2976,"ĠYork":2977,"Ġstone":2978,"ĠNep":2979,"Ġnon":2980,"381":2981,"Ġbooks":2982,"Ġcouldn":2983,"with":2984,"Ġcorner":2985,"Ġast":2986,"411":2987,"Ġmonths":2988,"Ġpermission":2989,"ency":2990,"923":2991,"ethod":2992,"Ġopin":2993,"Ġwait":2994,"Ġmor":2995,"orses":2996,"Ġquickly":2997,"ĠĠĠĠĠ":2998,"ĠMac":2999,"422":3000,"Ġjour":3001,"408":3002,"unications":3003,"uf":3004,"Ġmarried":3005,"352":3006,"047":3007,"683":3008,"Ġdesire":3009,"Ġhardly":3010,"%;":3011,"ires":3012,"ify":3013,"Ġexpendit":3014,"ĠSee":3015,"Ġnews":3016,"Ġbattle":3017,".--":3018,"Ġinflu":3019,"Ġthoughts":3020,"997":3021,"ume":3022,"ĠBrit":3023,"ĠĠĠĠĠĠĠ":3024,"olution":3025,"Ġfle":3026,"Ġlength":3027,"ales":3028,"Ġespecially":3029,"aded":3030,"Ġmaj":3031,"Ġpermanent":3032,"hel":3033,"alley":3034,"Ġanyone":3035,"Ġcopies":3036,"EM":3037,"073":3038,"Ġ40":3039,"Ġprev":3040,"Ġbelong":3041,"Ġsick":3042,"mn":3043,"Ġmater":3044,"Ġfru":3045,"988":3046,"vention":3047,"Ġinn":3048,"rodu":3049,"Ġcomplete":3050,"pid":3051,"Ġbeast":3052,"Ġcab":3053,"Ġwriting":3054,"ees":3055,"351":3056,"rill":3057,"953":3058,"house":3059,"rant":3060,"uous":3061,"613":3062,"453":3063,"zz":3064,"Ġsor":3065,"Ġkiss":3066,"//":3067,"Ġguess":3068,"ĠkW":3069,"906":3070,"AM":3071,"Ġconn":3072,"Ġlot":3073,"Ġshowed":3074,"Ġsingle":3075,"fer":3076,"ĠEd":3077,"322":3078,"908":3079,"Ġmembers":3080,"Ġband":3081,"ba":3082,"str":3083,"975":3084,"Ġafternoon":3085,"Ġexist":3086,"Ġways":3087,"Ġrefund":3088,"Ġopportun":3089,"373":3090,"Ġscarce":3091,"Ġpull":3092,"Ġenjoy":3093,"Ġpit":3094,"Ġwis":3095,"aries":3096,"Ġoil":3097,"Ġimm":3098,"Ġcarry":3099,"Ġunless":3100,"She":3101,"Ġproduction":3102,"Ġyellow":3103,"Ġ1990":3104,"ternational":3105,"tic":3106,"Ġcru":3107,"433":3108,"oom":3109,"313":3110,"Ġdistance":3111,"Ġseven":3112,"aby":3113,"unte":3114,"ĠCHAP":3115,"In":3116,"wood":3117,"Ġmort":3118,"Ġanx":3119,"://":3120,"Ġthird":3121,"ING":3122,"wed":3123,"spect":3124,"ald":3125,"Ġbird":3126,"ences":3127,"481":3128,"ys":3129,"Ġaddition":3130,"Ġoper":3131,"ĠTr":3132,"Ġhtt":3133,"Ġgate":3134,"Ġhorses":3135,"Ġhall":3136,"Ġhttp":3137,"Ġdepend":3138,"esh":3139,"071":3140,"Ġprobably":3141,"Ġvarious":3142,"form":3143,"ĠCHAPTER":3144,"ĠGovernment":3145,"ora":3146,"Ġlatter":3147,"Ġpresence":3148,"Ġfamil":3149,"Ġcapital":3150,"ises":3151,"Ġexpenditures":3152,"iers":3153,"ument":3154,"Ġspring":3155,"Ġcontr":3156,"Ġpra":3157,"Ġknows":3158,"Ġthick":3159,"Ġdread":3160,"029":3161,"Ġforget":3162,"Ġrequire":3163,"Ġrul":3164,"LE":3165,"ĠFe":3166,"Ġfright":3167,"321":3168,"ization":3169,"Ġcircumst":3170,"Ġplease":3171,"Ġmoon":3172,"Ġsky":3173,"423":3174,"Ġdomain":3175,"uge":3176,"383":3177,"Ġdut":3178,"Ġmeas":3179,"Ġcomputer":3180,"034":3181,"Ġinstant":3182,"net":3183,"067":3184,"Ġmiles":3185,"ĠChristian":3186,"ointed":3187,"Ġrain":3188,"ether":3189,"Ġdescrib":3190,"ouses":3191,"053":3192,"ruction":3193,"ope":3194,"ĠOcean":3195,"Ġgrave":3196,"Ġcivil":3197,"ĠTarzan":3198,"Ġcou":3199,"Ġfit":3200,"uary":3201,"Ġbeauty":3202,"ĠNO":3203,"Ġ33":3204,"su":3205,"936":3206,"TH":3207,"Ġcloud":3208,"Ġnotice":3209,"Ġwise":3210,"estern":3211,"Ġneg":3212,"969":3213,"Ġdifficult":3214,"Ġz":3215,"ĠSection":3216,"Ġsearch":3217,"isl":3218,"ech":3219,"ĠDon":3220,"ourage":3221,"olute":3222,"Ġbeneath":3223,"473":3224,"ĠOR":3225,"Ġdinner":3226,"ĠAnt":3227,"Ġ100":3228,"ĠMary":3229,"Ġsafe":3230,"ĠNorth":3231,"413":3232,"Ġign":3233,"995":3234,"082":3235,"045":3236,"ĠYet":3237,"Ġsilent":3238,"gu":3239,"itable":3240,"Ġpress":3241,"aled":3242,"wise":3243,"998":3244,"056":3245,"Ġconce":3246,"Ġseeing":3247,"SE":3248,"af":3249,"Ġmilitary":3250,"lling":3251,"Ġshut":3252,"rief":3253,"Ġtone":3254,"Ġdecla":3255,"Ġspread":3256,"Ġwaiting":3257,"Ġenter":3258,"Ġmiddle":3259,"Ġ00000":3260,"Ġraised":3261,"illa":3262,"ĠDef":3263,"225":3264,"ification":3265,"Ġtalking":3266,"Ġsitu":3267,"Ġgreater":3268,"ĠPeter":3269,"Ġinstead":3270,"unk":3271,"Ġusing":3272,"Ġgas":3273,"ĠAra":3274,"Ġgirls":3275,"Ġneck":3276,"Ġrelig":3277,"353":3278,"Ġmaid":3279,"061":3280,"aff":3281,"Ġmass":3282,"323":3283,"092":3284,"ĠWho":3285,"Ġrace":3286,"Ġresults":3287,"ĠSam":3288,"erning":3289,"ĠSh":3290,"cience":3291,"Ġoffer":3292,"Ġfresh":3293,"Ġimposs":3294,"Ġreflect":3295,"Ġproduced":3296,"Ġplaced":3297,"Ġlearned":3298,"ENT":3299,"Ġprint":3300,"riculture":3301,"since":3302,"Ġmiss":3303,"Ġcoast":3304,"ĠPeople":3305,"Ġ**":3306,"Ġdirection":3307,"Ġmethod":3308,"ĠRo":3309,"Ġproceed":3310,"Ġeasily":3311,"Ġvict":3312,"036":3313,"Ġsilver":3314,"Ġ55":3315,"Ġgaz":3316,"934":3317,"ĠEvery":3318,"091":3319,"Ġprofess":3320,"Ġaid":3321,"1993":3322,"ipped":3323,"race":3324,"Ġmult":3325,"Ġgrass":3326,"Ġplaces":3327,"Ġeduc":3328,"Ġminute":3329,"Ġisn":3330,"arily":3331,"ĠDem":3332,"Ġimmediately":3333,"Ġmaterial":3334,"483":3335,"978":3336,"Ġorgan":3337,"mes":3338,"982":3339,"ĠJes":3340,"jo":3341,"ourt":3342,"062":3343,"Ġsociety":3344,"Ġproducts":3345,"946":3346,"ources":3347,"Ġmention":3348,"Ġ75":3349,"Ġclosed":3350,"Ġbless":3351,"Ġrapid":3352,"081":3353,"964":3354,"Ġdim":3355,"Ġtrying":3356,"kn":3357,"Ġspoken":3358,"Ġsimple":3359,"Ġexpression":3360,"Ġnet":3361,"981":3362,"Ġkill":3363,"ĠItal":3364,"ĠeBooks":3365,"065":3366,"Ġsepar":3367,"Ġturning":3368,"ibly":3369,"Ġ1991":3370,"ecut":3371,"095":3372,"Ġstates":3373,"Ġarran":3374,"Ġpock":3375,"ĠLu":3376,"Ġdry":3377,"Ġ64":3378,"cell":3379,"gel":3380,"Ġdiscovered":3381,"Ġ66":3382,"ID":3383,"Ġshout":3384,"rank":3385,"068":3386,"ĠIndian":3387,"634":3388,"Ġ01":3389,"Ġrememb":3390,"por":3391,"osing":3392,"ashion":3393,"Ġsummer":3394,"IM":3395,"teen":3396,"Ġclothes":3397,"Ġ90":3398,"tered":3399,"Ġdistributing":3400,"Ġdistribution":3401,"icial":3402,"........................................":3403,"937":3404,"Ġbread":3405,"314":3406,"Ġlean":3407,"Ġdoctor":3408,"Ġsocial":3409,"ik":3410,"983":3411,"967":3412,"Ġrad":3413,"Ġmusic":3414,"umb":3415,"Ġpot":3416,"mbass":3417,"antic":3418,"Ġque":3419,"ĠEs":3420,"947":3421,"ĠHel":3422,"wor":3423,"ox":3424,"come":3425,"ounds":3426,"orted":3427,"ables":3428,"Ġbroke":3429,"941":3430,"off":3431,"Ġpassion":3432,"Ġdarkness":3433,"ĠSha":3434,"Ġbox":3435,"Ġbare":3436,"ĠHigh":3437,"1989":3438,"Ġexperience":3439,"Ġthine":3440,"Ġsong":3441,"urs":3442,"Ġid":3443,"Ġmighty":3444,"................................":3445,"laf":3446,"907":3447,"ĠSus":3448,"Ġshook":3449,"Do":3450,"Ġfemale":3451,"ĠFl":3452,"962":3453,"961":3454,"Ġharm":3455,"Ġpun":3456,"ental":3457,"914":3458,"Ġwel":3459,"Ġsaith":3460,"426":3461,"636":3462,"Ġ***":3463,"gypt":3464,"rest":3465,"Ġentirely":3466,"Ġbank":3467,"uls":3468,"Ġimpossible":3469,"938":3470,"Ġeffort":3471,"Ġtemper":3472,"Ġhistory":3473,"Ġlower":3474,"Ġearn":3475,"pered":3476,"Ġaut":3477,"aptain":3478,"Ġdollars":3479,"Ġconcerning":3480,"OL":3481,"Ġfol":3482,"ruct":3483,"ION":3484,"Ġworking":3485,"Ġlink":3486,"otten":3487,"Ġfurn":3488,"ĠTe":3489,"992":3490,"Not":3491,"ĠRepublic":3492,"972":3493,"436":3494,"Ġfro":3495,"Ġstar":3496,"ĠYe":3497,"Ġowner":3498,"gment":3499,"ĠEn":3500,"Ġtears":3501,"Ġwhatever":3502,"Ġimpro":3503,"Ġban":3504,"Ġsomewhat":3505,"Ġcomb":3506,"ĠJe":3507,"Ġboys":3508,"Ġ58":3509,"Ġcheck":3510,"Ġsimply":3511,"Ġgen":3512,"zen":3513,"Ġbow":3514,"956":3515,"ille":3516,"Ġdropped":3517,"ĠNephi":3518,"ĠGeorge":3519,"945":3520,"rict":3521,"icate":3522,"924":3523,"rance":3524,"ĠEconom":3525,"Ġbell":3526,"ĠFather":3527,"Ġvan":3528,"ching":3529,"nes":3530,"ĠInde":3531,"_,":3532,"Ġusual":3533,"Ġhang":3534,"083":3535,"Ġgrace":3536,"chant":3537,"ented":3538,"iety":3539,"Ġwid":3540,"Ġears":3541,"Ġmerely":3542,"Ġ02":3543,"ĠIslands":3544,"Ġpolitical":3545,"Ġconsiderable":3546,"Ġphr":3547,"ole":3548,"pg":3549,"Ġ57":3550,"ĠAle":3551,"935":3552,"Ġvolunte":3553,"Ġ200":3554,"Ġmonth":3555,"Ġbased":3556,"Ġdeli":3557,"Ġwicked":3558,"ĠQu":3559,"Ġboard":3560,"Ġtrib":3561,"ĠEgypt":3562,"ĠPresident":3563,"Ġtest":3564,"rect":3565,"Ġbirth":3566,"Ġtall":3567,"ye":3568,"Ġ05":3569,"Ġclean":3570,"icient":3571,"retched":3572,"Ġjourney":3573,"932":3574,"Ġwished":3575,"Ġthirty":3576,"Ġrese":3577,"926":3578,"676":3579,"Ġdecided":3580,"Ġnarrow":3581,"ping":3582,"434":3583,"Ġur":3584,"ibility":3585,"itive":3586,"Ġones":3587,"Ġstream":3588,"Ġpiece":3589,"ufact":3590,"968":3591,"Ġmedium":3592,"Ġpicture":3593,"Ġdwell":3594,"Ġdig":3595,"ĠPol":3596,"wo":3597,"614":3598,"Ġsmiled":3599,"Ġexpected":3600,"iqu":3601,"954":3602,"Ġopinion":3603,"asc":3604,"gutenberg":3605,"ANT":3606,"pglaf":3607,"Ġmountains":3608,"abor":3609,"Then":3610,"Ġtalked":3611,"Ġsole":3612,"916":3613,"Ġroy":3614,"Ġdat":3615,"Ġtrade":3616,"Ġtext":3617,"Ġmajor":3618,"Ġmission":3619,"416":3620,"Ġdesert":3621,"Ġ1992":3622,"appe":3623,"OM":3624,"Ġrid":3625,"ipe":3626,"ĠPRO":3627,"ĠTheir":3628,"ĠWhile":3629,"rid":3630,"Ġ34":3631,"Ġservant":3632,"456":3633,"aped":3634,"Ġstrugg":3635,"Ġconscious":3636,"887":3637,"Ġspecial":3638,"Ġavail":3639,"ĠMic":3640,"acher":3641,"656":3642,"Ġprovided":3643,"ĠCaptain":3644,"654":3645,"morrow":3646,"oyal":3647,"Ġchanged":3648,"under":3649,"Ġletters":3650,"Ġworse":3651,"Ġminister":3652,"Ġhol":3653,"ĠPrince":3654,"931":3655,"Ġofficial":3656,"Ġhid":3657,"Ġattack":3658,"Ġwrote":3659,"Ġsnow":3660,"Ġalthough":3661,"Ġappearance":3662,"inite":3663,"Ġtelephone":3664,"386":3665,"idered":3666,"De":3667,"Now":3668,"Ġsmo":3669,"Ġsav":3670,"ador":3671,"900":3672,"Ġutter":3673,"ai":3674,"Ġgroup":3675,"Ġpleasant":3676,"Ġcrops":3677,"Ġfly":3678,"Ġ52":3679,"yn":3680,"Ġcontro":3681,"Ġgiving":3682,"Ġguard":3683,"Ġcheer":3684,"Ġescape":3685,"ĠUp":3686,"Ġfier":3687,"icit":3688,"Ġprevent":3689,"ĠGree":3690,"Ġproble":3691,"Ġwand":3692,"Ġparties":3693,"476":3694,"Ġunivers":3695,"971":3696,"ĠPop":3697,"rain":3698,"Ġdivisions":3699,"ĠCo":3700,"ocks":3701,"Ġleaving":3702,"Ġproud":3703,"Ġfrequ":3704,"Ġwatched":3705,"olved":3706,"Ġequip":3707,"ĠMor":3708,"Ġmarry":3709,"acity":3710,"Ġcustom":3711,"Ġmountain":3712,"umer":3713,"991":3714,"Ġapart":3715,"Ġtrain":3716,"Ġgovern":3717,"ocratic":3718,"Ġpartners":3719,"Ġbull":3720,"ĠComp":3721,"Ġcand":3722,"Ġlying":3723,"set":3724,"Ġtast":3725,"Is":3726,"046":3727,"TR":3728,"ĠSm":3729,"Ġdefect":3730,"umed":3731,"Ġsorry":3732,"riet":3733,"Ġcovered":3734,"Ġblind":3735,"Ġstation":3736,"ĠBl":3737,"374":3738,"clock":3739,"446":3740,"Ġextra":3741,"202":3742,"ĠMore":3743,"ĠEven":3744,"apers":3745,"664":3746,"973":3747,"ology":3748,"Ġthrew":3749,"Ġstro":3750,"Ġvillage":3751,"905":3752,"Ġhabit":3753,"Ġspent":3754,"Ġterrible":3755,"Ġkeeping":3756,"Ġbeat":3757,"dy":3758,"Ġrunning":3759,"ĠStreet":3760,"hal":3761,"Ġliber":3762,"Ġassist":3763,"Ġ77":3764,"ĠArab":3765,"Ġadvant":3766,"Ġwalls":3767,"Ġinfluence":3768,"Ġspeaking":3769,"Ġpale":3770,"384":3771,"ĠRed":3772,"Ġeager":3773,"cember":3774,"Ġlines":3775,"616":3776,"athered":3777,"com":3778,"ĠJesus":3779,"Ġlives":3780,"Ġvain":3781,"They":3782,"Ġuns":3783,"Ġsche":3784,"Ġwonderful":3785,"Ġhouses":3786,"Ġthin":3787,"Ġaccepted":3788,"ĠSusan":3789,"626":3790,"666":3791,"Ġbitter":3792,"anuary":3793,"igr":3794,"__":3795,"376":3796,"ports":3797,"Ġshoulder":3798,"Ġcapita":3799,"ĠConst":3800,"now":3801,"Ġforeign":3802,"lished":3803,"Ġmaint":3804,"Ġartic":3805,"Ġliter":3806,"Ġshoulders":3807,"ustrial":3808,"Ġgar":3809,"Ġmurm":3810,"ĠJust":3811,"Ġeconomic":3812,"ĠJane":3813,"Ġreading":3814,"AG":3815,"Ġsteps":3816,"Ġmut":3817,"Ġmanufact":3818,"Ġball":3819,"Ġmarked":3820,"iny":3821,"Ġthro":3822,"Ġorigin":3823,"ĠBritish":3824,"Ġsurprise":3825,"Ġaction":3826,"fast":3827,"Ġpubl":3828,"Ġwine":3829,"624":3830,"Ġreven":3831,"arer":3832,"iron":3833,"993":3834,"Ġapproach":3835,"ĠMc":3836,"Ġobserved":3837,"Ġ51":3838,"316":3839,"Ġthereof":3840,"Ġcommod":3841,"Ġsharp":3842,"Ġequipment":3843,"Ġnerv":3844,"ops":3845,"857":3846,"Ġfer":3847,"ĠTy":3848,"414":3849,"CH":3850,"454":3851,"Ġconversation":3852,"action":3853,"alse":3854,"356":3855,"Ġopportunity":3856,".;":3857,"aked":3858,"Ġi":3859,"Ġgenerally":3860,"020":3861,"Ġcondition":3862,"Ġnm":3863,"Ġservants":3864,"Ġequal":3865,"Ġconsequ":3866,"Ġvalley":3867,"IG":3868,"ĠParis":3869,"ĠRic":3870,"Ġeast":3871,"ĠRoman":3872,"attered":3873,"076":3874,"This":3875,"olly":3876,"Ġfruit":3877,"Ġrepeated":3878,"anted":3879,"Ġoffered":3880,"just":3881,"474":3882,"Ġgame":3883,"684":3884,"ĠCourt":3885,"Ġapparent":3886,"Ġcrim":3887,"Don":3888,"irst":3889,"Ġallow":3890,"Ġconcern":3891,"Ġsuc":3892,"326":3893,"ĠWilliam":3894,"Ġlifted":3895,"Ġspeech":3896,"ĠLeg":3897,"Ġoblig":3898,"Pro":3899,"Ġdeaths":3900,"444":3901,"VE":3902,"Ġoccupied":3903,"Ġspot":3904,"074":3905,"Ġspeed":3906,"Ġmale":3907,"ĠIC":3908,"Ġprivate":3909,"cher":3910,"bles":3911,"ilar":3912,"Ġbrown":3913,"port":3914,"Ġseat":3915,"Ġintrodu":3916,"pes":3917,"Ġtender":3918,"Ġabsolute":3919,"Ġunderstood":3920,"Ġpersons":3921,"484":3922,"Ġcircumstances":3923,"otal":3924,"Ġglance":3925,"Ġgro":3926,"054":3927,"Ġfaint":3928,"Ġ07":3929,"Ġpossession":3930,"Ġmarriage":3931,"ĠAmerica":3932,"Ġsucceed":3933,"gs":3934,"Ġvirt":3935,"Ġfirm":3936,"Ġfreely":3937,"Ġpure":3938,"Ġparts":3939,"ĠAND":3940,"ban":3941,"Ġhes":3942,"117":3943,"Ġflowers":3944,"Ġ46":3945,"Ah":3946,"fess":3947,"ril":3948,"Ġefforts":3949,"Ġexactly":3950,"965":3951,"IB":3952,"Ġphil":3953,"Ġ36":3954,"gers":3955,"pendence":3956,"277":3957,"ĠCoun":3958,"Ġempt":3959,"Ġformed":3960,"Ġwinter":3961,"Ġenemy":3962,"Ġfed":3963,"Ġjudge":3964,"SC":3965,"Ġ78":3966,"Ġfifty":3967,"view":3968,"ann":3969,"157":3970,"424":3971,"Ġleaves":3972,"Ġindust":3973,"Ġsorrow":3974,"alem":3975,"Ġ50":3976,"ashed":3977,"Ġflesh":3978,"erc":3979,"Ġdust":3980,"686":3981,"ĠBel":3982,"Ġboat":3983,"902":3984,"ĠTO":3985,"Ġreve":3986,"Ġshare":3987,"Ġfixed":3988,"Ġfashion":3989,"Ġant":3990,"Ġphrase":3991,"reen":3992,"ipl":3993,"Ġperfectly":3994,"''":3995,"Ġdebt":3996,"pping":3997,"Ġwest":3998,"354":3999,"Ġapplic":4000,"324":4001,"Ġdiscuss":4002,"omatic":4003,"Ġexample":4004,"Ġlanguage":4005,"086":4006,"Ġestablished":4007,"Ġcollection":4008,"erous":4009,"Ġhide":4010,"ĠSy":4011,"ĠCont":4012,"901":4013,"ding":4014,"Ġresources":4015,"Ġslightly":4016,"Ġfingers":4017,"Ġloud":4018,"ĠHol":4019,"ĠHouse":4020,"ĠCom":4021,"ĠYes":4022,"Ġtro":4023,"gro":4024,"Ġpleased":4025,"osop":4026,"084":4027,"Ġworked":4028,"Ġbelieved":4029,"Ġuncle":4030,"Ġrise":4031,"Ġves":4032,"Ġsymp":4033,"hib":4034,"Ġappre":4035,"Ġcommodities":4036,"Ġpack":4037,"Ġprincip":4038,"rel":4039,"Ġfinished":4040,"Ġtong":4041,"Ġgall":4042,"Ġsituation":4043,"Ġdue":4044,"486":4045,"ĠWor":4046,"227":4047,"Ġ63":4048,"Ġsurr":4049,"Ġwasn":4050,"Ġfail":4051,"ĠHenry":4052,"Ġmot":4053,"Ġtired":4054,"257":4055,"Ġremoved":4056,"Ġbuilt":4057,"674":4058,"Ġrail":4059,"Ġgathered":4060,"Ġsake":4061,"hest":4062,"646":4063,"ĠAlma":4064,"Ġposted":4065,"ĠJerus":4066,"Ġdu":4067,"Ġserious":4068,"Ġvalue":4069,"eds":4070,"177":4071,"cle":4072,"Ġkilled":4073,"Ġwaited":4074,"ails":4075,"Ġcurrent":4076,"Ġcred":4077,"Ġprim":4078,"ok":4079,"Ġgoes":4080,"gin":4081,"Ġancient":4082,"ĠVan":4083,"istic":4084,"Ġservices":4085,"Ġhonest":4086,"igned":4087,"Ġfallen":4088,"Ġtim":4089,"Ġobserv":4090,"986":4091,"Ġadmir":4092,"Ġprepared":4093,"Ġscene":4094,"Ġpassing":4095,"ĠPh":4096,"Ġbreast":4097,"Ġseek":4098,"Ġfortune":4099,"Ġbirths":4100,"Ġsubst":4101,"ĠMal":4102,"Ġlocal":4103,"look":4104,"ĠCons":4105,"258":4106,"hington":4107,"Ġnice":4108,"Ġfile":4109,"Ġ04":4110,"Ġstore":4111,"Ġcat":4112,"Ġcatch":4113,"ode":4114,"ovember":4115,"fl":4116,"Ġcreature":4117,"Ġfinally":4118,"Ġ1993":4119,"ĠIM":4120,"lease":4121,"ĠLy":4122,"Ġarg":4123,"Ġlikely":4124,"Ġholy":4125,"Ġwear":4126,"Ġ93":4127,"Ġpocket":4128,"Ġglory":4129,"ĠCouncil":4130,"Ġbas":4131,"Ġconsidered":4132,"Ġconfess":4133,"UN":4134,"ĠJerusalem":4135,"SAT":4136,"Ġdoesn":4137,"115":4138,"aves":4139,"Ġedge":4140,"Ġeconomy":4141,"Ġdistribute":4142,"Ġshadow":4143,"Ġarmy":4144,"Ġcott":4145,"Ġbecom":4146,"Ġsite":4147,"Ġcover":4148,"ĠHowever":4149,"Ġmir":4150,"ĠWashington":4151,"law":4152,"Ġexplan":4153,"Ġpersonal":4154,"oted":4155,"ĠOct":4156,"ĠIsland":4157,"Ġextreme":4158,"Ġcho":4159,"ecutive":4160,"elve":4161,"Ġvessel":4162,"BER":4163,"ĠPl":4164,"Ġdetermined":4165,"Ġscarcely":4166,"Ġmeeting":4167,"ĠSw":4168,"ingu":4169,"ĠLa":4170,"ique":4171,"Ġtow":4172,"Ġ72":4173,"128":4174,"Ġheat":4175,"ĠThor":4176,"Ġsacri":4177,"Ġbuilding":4178,"aman":4179,"175":4180,"272":4181,"Ġlooks":4182,"chen":4183,"Ġvent":4184,"Ġfaces":4185,"ĠAlex":4186,"Ġconduct":4187,"Ġ\"'":4188,"Ġrecord":4189,"erences":4190,"ĠkWh":4191,"ĠTur":4192,"155":4193,"Ġshot":4194,"ĠTHIS":4195,"Ġdirectly":4196,"Ġhealth":4197,"Ġcruel":4198,"ĠMarch":4199,"',":4200,"lend":4201,"Ġstorm":4202,"Ġliked":4203,"Ġdrawn":4204,"Ġduty":4205,"ĠWhich":4206,"Ġoriginal":4207,"Ġcoat":4208,"omin":4209,"rose":4210,"Ġsusp":4211,"Ġwitness":4212,"ishment":4213,"othe":4214,"ĠSa":4215,"ugust":4216,"ĠAfrica":4217,"Ġremembered":4218,"Ġslave":4219,"Ġphysical":4220,"Ġdescend":4221,"Ġobtain":4222,"osite":4223,":--":4224,"ĠAir":4225,"ishing":4226,"Ġ94":4227,"bb":4228,"Ġsubs":4229,"Ġexpress":4230,"ov":4231,"pter":4232,"Ġmead":4233,"Ġheads":4234,"Ġ#":4235,"Ġreply":4236,"semb":4237,"----\"":4238,"Ġcommer":4239,"Ġprec":4240,"Ġaud":4241,"ĠJune":4242,"255":4243,"Ġonline":4244,"Ġparticularly":4245,"apan":4246,"ĠDu":4247,"Ġseason":4248,"Ġsupposed":4249,"Ġbottom":4250,"orough":4251,"Ġexcell":4252,"Ġcontact":4253,"Ġeld":4254,"Ġsand":4255,"Ġdisappe":4256,"Ġunf":4257,"118":4258,"Ġpride":4259,"Ġshore":4260,"ĠLady":4261,"ĠScott":4262,"275":4263,"ĠMe":4264,"cription":4265,"Ġfarm":4266,"ĠAtl":4267,"known":4268,"877":4269,"Ġcompanion":4270,"llen":4271,"Ġnoble":4272,"Ġoffering":4273,"Ġhappiness":4274,"ober":4275,"inc":4276,"Ġstir":4277,"Ġweeks":4278,"Ġexcl":4279,"ait":4280,"Ġseats":4281,"EAR":4282,"ĠThou":4283,"Ġclaims":4284,"Ġgun":4285,"Ġrough":4286,"Ġrequired":4287,"Ġaccounts":4288,"994":4289,"ĠJew":4290,"ulf":4291,"gged":4292,"Ġsought":4293,"Ġcourage":4294,"Ġhaven":4295,"Ġstudy":4296,"ĠQue":4297,"ĠYour":4298,"Ġignor":4299,"ena":4300,"Ġupper":4301,"855":4302,"Ġgoods":4303,"Ġstranger":4304,"Ġforgotten":4305,"Ġmemory":4306,"Ġ...":4307,"ĠDefense":4308,"Ġmachine":4309,"Ġident":4310,"Ġdrawing":4311,"istribut":4312,"Ġpoet":4313,"Ġcaused":4314,"Ġclim":4315,"Ġlocated":4316,"Ġben":4317,"uses":4318,"Ġafterwards":4319,"Ġhonour":4320,"ĠProfess":4321,"Ġinside":4322,"Ġthroughout":4323,"ĠMont":4324,"Ġdeclared":4325,"Ġsacrif":4326,"ux":4327,"thren":4328,"Ġincludes":4329,"Ġmodern":4330,"984":4331,"ECT":4332,"Ġaston":4333,"cast":4334,"ids":4335,"sed":4336,"ese":4337,"eal":4338,"228":4339,"Ġarrived":4340,"eous":4341,"Ġhunt":4342,"can":4343,"idently":4344,"Ġallowed":4345,"Ġvolunteers":4346,"pha":4347,"ĠOur":4348,"Ġcommit":4349,"Ġvast":4350,"Ġdism":4351,"Ġdate":4352,"885":4353,"Ġspace":4354,"Ġhurt":4355,"Project":4356,"ĠRE":4357,"Ġstreets":4358,"Ġris":4359,"Ġinteresting":4360,"ĠGl":4361,"itated":4362,"ulate":4363,"Ġnumb":4364,"Ġexplained":4365,"Ġhills":4366,"enn":4367,"111":4368,"ĠJac":4369,"Ġteach":4370,"Ġstations":4371,"Ġtelling":4372,"ios":4373,"Ġserve":4374,"Ġfill":4375,"Ġfancy":4376,"Ġgolden":4377,"arative":4378,"ivity":4379,"Ġblow":4380,"Ġattend":4381,"Ġ1989":4382,"Ġburst":4383,"Ġpresently":4384,"ĠUnion":4385,"sc":4386,"ĠAnn":4387,"Ġpromise":4388,"Ġcases":4389,"ography":4390,"Ġhuge":4391,"Ġstick":4392,"ĠNovember":4393,"ancing":4394,"Ġspite":4395,"ĠXX":4396,"Ġ96":4397,"atural":4398,"440":4399,"Ġ03":4400,"Ġmidst":4401,"viron":4402,"Ġadvent":4403,"Ġ82":4404,"Ġcalm":4405,"875":4406,"878":4407,"Ġtakes":4408,"ĠAugust":4409,"ĠSaint":4410,"Ġgrown":4411,"Ġangry":4412,"Ġnames":4413,"ĠRal":4414,"Ġgrad":4415,"Ġintellect":4416,"aving":4417,"uel":4418,"Ġfert":4419,"Ġweight":4420,"tering":4421,"ago":4422,"ama":4423,"Ġbrethren":4424,"Ġsurprised":4425,"Ġdistributed":4426,"ITY":4427,"Ġbent":4428,"ĠLife":4429,"olic":4430,"orial":4431,"ĠGreat":4432,"Ġrising":4433,"ĠOver":4434,"Ġstock":4435,"key":4436,"974":4437,"Ġ53":4438,"Ġcommanded":4439,"no":4440,"Ġjustice":4441,"Ġmeaning":4442,"Ġincluded":4443,"sembly":4444,"ĠJuly":4445,"Ġfalse":4446,"unch":4447,"Ġcool":4448,"Ġnamed":4449,"996":4450,"ĠProfessor":4451,"Ġspake":4452,"Ġmatters":4453,"Ġfond":4454,"ested":4455,"ĠLou":4456,"Ġships":4457,"ĠRalph":4458,"Ġkingdom":4459,"Ġsimilar":4460,"culiar":4461,"Ġcler":4462,"Ġsurface":4463,"Ġchem":4464,"ĠAM":4465,"ĠMer":4466,"ĠOther":4467,"ĠJapan":4468,"Ġsteam":4469,"Ġiss":4470,"151":4471,"bon":4472,"inet":4473,"rif":4474,"Ġmel":4475,"Ġphilosop":4476,"Ġhigher":4477,"Ġinha":4478,"!--":4479,"ially":4480,"Ġplayed":4481,"Ġtouched":4482,"bur":4483,"Ġring":4484,"Ġprotect":4485,"Ġwaters":4486,"Ġain":4487,"Ġlibr":4488,"ĠOctober":4489,"ĠBen":4490,"Ġpeculiar":4491,"AB":4492,"ading":4493,"vert":4494,"Ġopposite":4495,"atures":4496,"ana":4497,"ĠElect":4498,"Ġholding":4499,"872":4500,"Ġtwelve":4501,"Ġhate":4502,"ĠSept":4503,"ĠJames":4504,"Ġ81":4505,"Ġintellig":4506,"EC":4507,"anc":4508,"Ġterm":4509,"ĠMoses":4510,"Ġshame":4511,"172":4512,"Ġamount":4513,"Ġplate":4514,"Ġquestions":4515,"Ġhero":4516,"Ġadmin":4517,"Ġwalking":4518,"ĠCal":4519,"Ġstatus":4520,"Ġtea":4521,"Ġcaptain":4522,"Ġlose":4523,"Ġ71":4524,"ias":4525,"ivered":4526,"eping":4527,"Ġ60":4528,"Ġcurious":4529,"ĠDecember":4530,"ĠCommun":4531,"resp":4532,"ua":4533,"Ġcentury":4534,"Ġfate":4535,"ulty":4536,"Ġmotion":4537,"Ġusually":4538,"islative":4539,"Ġexplanation":4540,"178":4541,"ĠSuch":4542,"Ġknowing":4543,"Ġhousehold":4544,"ĠInformation":4545,"pro":4546,"ests":4547,"acle":4548,"Ġthank":4549,"Ġcities":4550,"Ġdisapp":4551,"ĠIts":4552,"ĠSea":4553,"ounced":4554,"Ġprophe":4555,"ville":4556,"arm":4557,"976":4558,"Ġsize":4559,"Ġwore":4560,"ĠIF":4561,"Ġinterrupt":4562,"rang":4563,"Ġ54":4564,"Ġrespons":4565,"ĠNever":4566,"ĠTir":4567,"Ġalive":4568,"Ġgrowing":4569,"Ġbill":4570,"Ġperce":4571,"ses":4572,"Ġcult":4573,"vironment":4574,"Ġmeat":4575,"Ġexistence":4576,"Ġprincipal":4577,"arl":4578,"Ġdare":4579,"ushing":4580,"Ġlevel":4581,"Ġdrive":4582,"Ġcreated":4583,"Ġloss":4584,"ĠSund":4585,"ĠWestern":4586,"Ġmill":4587,"Ġshop":4588,"Ġwatching":4589,"888":4590,"Ġempty":4591,"ky":4592,"Ġloose":4593,"Ġindustry":4594,"rage":4595,"Ġbold":4596,"Ġactive":4597,"Ġrule":4598,"hens":4599,"ET":4600,"171":4601,"Ġpresident":4602,"Ġmagn":4603,"ĠRuss":4604,"Ġadvantage":4605,"Ġknight":4606,"Ġdressed":4607,"Ġsheep":4608,"ĠLat":4609,"278":4610,"Ġbuy":4611,"Ġsuggested":4612,"].":4613,"zy":4614,"ĠDemocratic":4615,"Ġbal":4616,"Ġnoticed":4617,"Ġkey":4618,"nic":4619,"Ġsail":4620,"Ġlegal":4621,"rem":4622,"omb":4623,"Ġgreatest":4624,"Ġwindows":4625,"Ġaside":4626,"Ġpity":4627,"Ġfavor":4628,"Ġproject":4629,"Ġgray":4630,"Ġlies":4631,"333":4632,"Ġconvention":4633,"112":4634,"Ġfamiliar":4635,"Ġsettled":4636,"ĠFOR":4637,"Ġhandsome":4638,"Ġbreakfast":4639,"gl":4640,"iber":4641,"Ġmi":4642,"role":4643,"Ġtravel":4644,"Ġinterested":4645,"Ġtend":4646,"add":4647,"ĠUK":4648,"arked":4649,"Ġincl":4650,"Ġforty":4651,"Ġ83":4652,"rim":4653,"Ġrejo":4654,"158":4655,"Ġproviding":4656,"Ġdiscover":4657,"Ġswift":4658,"Ġcrown":4659,"Ġengaged":4660,"Ġaim":4661,"Ġthreat":4662,"Ġhearts":4663,"ĠSeptember":4664,"ogether":4665,"Ġwhispered":4666,"Ġbod":4667,"Ġaccomp":4668,"Ġreplace":4669,"ois":4670,"Ġrequirements":4671,"Ġbord":4672,"DA":4673,"Ġlack":4674,"Ġindic":4675,"ĠINT":4676,"chan":4677,"ĠFred":4678,"1994":4679,"Ġwealth":4680,"Ġheight":4681,"Ġdistinct":4682,"Ġterrit":4683,"Ġdecl":4684,"iently":4685,"Ġdifference":4686,"Ġnational":4687,"043":4688,"Ġtrack":4689,"TU":4690,"ĠApril":4691,"Ġkit":4692,"ĠCity":4693,"Ġreb":4694,"Ġflat":4695,"ensive":4696,"Ġagreed":4697,"Ġfr":4698,"Ġproof":4699,"Ġlimited":4700,"Ġladies":4701,"Ġmigr":4702,"urity":4703,"Ġparent":4704,"ĠTom":4705,"ĠCount":4706,"ada":4707,"ARR":4708,"Ġpossessed":4709,"Ġavo":4710,"roleum":4711,"ĠMag":4712,"Ġrepresentation":4713,"Ġdifficulty":4714,"Ġclearly":4715,"ĠQueen":4716,"Ġhappen":4717,"Ġquietly":4718,"Ġhonor":4719,"reck":4720,"ĠBot":4721,"ĠJose":4722,"Ġcontain":4723,"Ġordinary":4724,"mit":4725,"OS":4726,"Ġleaders":4727,"Ġgather":4728,"Ġpassage":4729,"lly":4730,"Ġdece":4731,"alled":4732,"ĠRoyal":4733,"Ġregular":4734,"Ġsingular":4735,"Ġ74":4736,"ĠMon":4737,"Ġsplend":4738,"Ġjudgment":4739,"Ġimmediate":4740,"Ġ56":4741,"182":4742,"Ġanimal":4743,"Ġmail":4744,"ĠWH":4745,"039":4746,"do":4747,"ĠCent":4748,"onel":4749,"Ġ73":4750,"Ġfreed":4751,"Ġbeha":4752,"Ġsides":4753,"858":4754,"Ġeditions":4755,"Ġfierce":4756,"anda":4757,"ival":4758,"Ġsmiling":4759,"Ġble":4760,"Ġ@":4761,"Ġforms":4762,"ulous":4763,"Ġtit":4764,"ĠGR":4765,"Ġconditions":4766,"251":4767,"Ġcarriage":4768,"Ġexchange":4769,"Ġnoise":4770,"Ġarch":4771,"estic":4772,"222":4773,"ĠBur":4774,"Ġcommun":4775,"lor":4776,"Ġexerc":4777,"Ġdescribed":4778,"Ġinterp":4779,"Ġmessage":4780,"Ġchamber":4781,"Ġwoods":4782,"istered":4783,"Ġsurely":4784,"Ġtrave":4785,"Ġcapacity":4786,"Ġweather":4787,"Ġattract":4788,"ĠSomet":4789,"ĠForces":4790,"Ġpair":4791,"Ġpos":4792,"ĠMany":4793,"ĠTherefore":4794,"Ġbaby":4795,"ĠPers":4796,"Ġpage":4797,"Ġanger":4798,"ĠPrin":4799,"www":4800,"Ġtor":4801,"Ġlegs":4802,"ĠSan":4803,"OO":4804,"Ġimper":4805,"Ġsmoke":4806,"Ġideas":4807,"Ġauthority":4808,"ĠTirant":4809,"Ġacquaint":4810,"ELSAT":4811,"bru":4812,"ege":4813,"939":4814,"Ġcoff":4815,"Ġrub":4816,"224":4817,"ĠTotal":4818,"iana":4819,"ĠAust":4820,"949":4821,"ĠJack":4822,"Ġwondered":4823,"Ġexceed":4824,"Ġteeth":4825,"ĠPerhaps":4826,"So":4827,"ĠAre":4828,"Ġkitchen":4829,"ĠSch":4830,"iplomatic":4831,"vi":4832,"uted":4833,"ĠHolmes":4834,"hael":4835,"Ġamb":4836,"Ġadditional":4837,"ĠNOT":4838,"Ġess":4839,"Ġfathers":4840,"ĠConstitution":4841,"Ġvers":4842,"909":4843,"Ġmercy":4844,"Ġrob":4845,"Ġfavour":4846,"venue":4847,"152":4848,"BERG":4849,"Ġpapers":4850,"Ġprogress":4851,"Ġtongue":4852,"uments":4853,"Ġanywhere":4854,"theless":4855,"Ġpictures":4856,"comm":4857,"Ġfees":4858,"221":4859,"ĠThom":4860,"Ġplant":4861,"Ġtaught":4862,"Ġlit":4863,"ols":4864,"Ġprogram":4865,"ĠAlice":4866,"Ġearnest":4867,"Ġlog":4868,"stand":4869,"Ġnumerous":4870,"ĠBehold":4871,"was":4872,"ompl":4873,"881":4874,"030":4875,"1988":4876,"Ġsympath":4877,"Ġune":4878,"outhern":4879,"Ġcrime":4880,"ĠANY":4881,"CE":4882,"Ġformat":4883,"121":4884,"Ġdistingu":4885,"Ġtaste":4886,"Ġforced":4887,"JECT":4888,"pir":4889,"asing":4890,"Ġsuspic":4891,"leep":4892,"next":4893,"pet":4894,"Ġodd":4895,"cause":4896,"itz":4897,"Ġappears":4898,"Ġcarefully":4899,"Ġpick":4900,"Ġtwice":4901,"Ġdegree":4902,"ional":4903,"181":4904,"Ġterror":4905,"Ġpu":4906,"dr":4907,"Ġtent":4908,"Ġstage":4909,"kin":4910,"Ġcolor":4911,"woman":4912,"Ġdiss":4913,"Ġbrave":4914,"ĠGUT":4915,"ĠJanuary":4916,"Ġimagine":4917,"oned":4918,"Ġnation":4919,"Ġgreatly":4920,"Ġourselves":4921,"gate":4922,"Ġmoving":4923,"ĠPopulation":4924,"273":4925,"ĠBefore":4926,"Ġinvest":4927,"Ġpieces":4928,"Ġstars":4929,"AO":4930,"Ġoccurred":4931,"Ġprices":4932,"Ġspend":4933,"Ġsuffer":4934,"ĠAG":4935,"Ġlovely":4936,"wing":4937,"Ġfault":4938,"252":4939,"Ġcomputers":4940,"Ġroyal":4941,"Ġisland":4942,"173":4943,"itime":4944,"Ġhom":4945,"ĠWil":4946,"Ġproblem":4947,"Ġlistened":4948,"044":4949,"ĠChief":4950,"ĠChurch":4951,"field":4952,"acific":4953,"text":4954,"host":4955,"ĠAlexand":4956,"ris":4957,"Ġnobody":4958,"Ġlod":4959,"ENBERG":4960,"Ġneeded":4961,"ĠHeaven":4962,"Ġarose":4963,"othy":4964,"ĠGUTENBERG":4965,"Ġproved":4966,"253":4967,"Ġquarter":4968,"Ġenemies":4969,"non":4970,"Ġdoors":4971,"ĠMart":4972,"sec":4973,"using":4974,"Ġpromised":4975,"bruary":4976,"rey":4977,"Ġpetroleum":4978,"ĠInternational":4979,"Ġlaughing":4980,"Ġholder":4981,"153":4982,"271":4983,"852":4984,"Ġdouble":4985,"III":4986,"umn":4987,"Ġhit":4988,"Come":4989,"Ġshape":4990,"ĠCong":4991,"ĠKnight":4992,"Ġsentence":4993,"Ġgods":4994,"ĠII":4995,"Ġbegun":4996,"Ġestablish":4997,"Ġrode":4998,"Ġ08":4999,"cip":5000,"Ġdesign":5001,"ĠINTELSAT":5002,"Ġuser":5003,"Ġdisclaim":5004,"++++++++":5005,"Ġyours":5006,"Ġroof":5007,"Ġevidence":5008,"To":5009,"yl":5010,"Ġpointed":5011,"bury":5012,"Ġcit":5013,"Ġhurried":5014,"Ġexcellent":5015,"Ġener":5016,"Ġcompliance":5017,"Ġdisplaying":5018,"ĠSu":5019,"882":5020,"sing":5021,"Ġaccompl":5022,"Ġinnoc":5023,"Ġmiser":5024,"Ġconfidence":5025,"worth":5026,"ĠPROJECT":5027,"ĠMinister":5028,"IP":5029,"Ġlarger":5030,"Ġholid":5031,"rees":5032,"Ġrare":5033,"Ġfart":5034,"ĠDeath":5035,"Ġing":5036,"stairs":5037,"ĠPort":5038,"Ġuniversal":5039,"Ġheav":5040,"istan":5041,"Ġcopying":5042,"Ġlinks":5043,"Ġ06":5044,"Ġconfir":5045,"cer":5046,"cons":5047,"eg":5048,"urally":5049,"ĠCome":5050,"ĠEast":5051,"Ġcow":5052,"nde":5053,"see":5054,"ĠSmith":5055,"IES":5056,"Ġsecure":5057,"inery":5058,"Ġgle":5059,"ĠOnce":5060,"Ġnations":5061,"ĠAh":5062,"871":5063,"851":5064,"Ġawful":5065,"Ġvir":5066,"Ġrighteous":5067,"Ġserved":5068,"Ġpulled":5069,"ĠWARR":5070,"ourn":5071,"223":5072,"lessly":5073,"Ġrapidly":5074,"asons":5075,"Ġdozen":5076,"Ġchoose":5077,"Ġbrain":5078,"Ġlisten":5079,"Ġextent":5080,"Ġluck":5081,"Ġthrown":5082,"Ġdistur":5083,"777":5084,"====":5085,"CL":5086,"Ġyield":5087,"Ġgives":5088,"Ġcalcul":5089,"ĠWar":5090,"Ġmyst":5091,"Ġpaused":5092,"Ġneighbour":5093,"Ġflag":5094,"Ġpor":5095,"Ġbirds":5096,"Ġpermitted":5097,"ĠWorld":5098,"mas":5099,"enance":5100,"Ġcolour":5101,"ĠJudah":5102,"ware":5103,"ĠSat":5104,"123":5105,"ĠWARRANT":5106,"bar":5107,"Ġbore":5108,"ste":5109,"ESS":5110,"Ġcrossed":5111,"from":5112,"isp":5113,"ĠBell":5114,"ĠDan":5115,"Ġmovement":5116,"Ġaffection":5117,"Ġsquare":5118,"Ġleading":5119,"Ġdrove":5120,"exic":5121,"Ġfields":5122,"Ġanxious":5123,"Ġdull":5124,"063":5125,"Let":5126,"Ġrepro":5127,"):":5128,"ĠRod":5129,"Ġsupper":5130,"Ġwisdom":5131,"ĠWhe":5132,"Ġtype":5133,"Ġsaved":5134,"ĠSpe":5135,"ĠSol":5136,"usive":5137,"Ġfled":5138,"UL":5139,"atory":5140,"183":5141,"Ġwants":5142,"093":5143,"itor":5144,"Ġafford":5145,"ĠHad":5146,"ĠMo":5147,"ĠNet":5148,"Ġliberty":5149,"NA":5150,"ĠTwo":5151,"Ġintended":5152,"orthern":5153,"126":5154,"rable":5155,"aming":5156,"Ġsevere":5157,"Ġrooms":5158,"Ġhack":5159,"ĠAdam":5160,"vey":5161,"Ġnose":5162,"ception":5163,"ĠCON":5164,"pel":5165,"ĠFebruary":5166,"Ġcard":5167,"Ġded":5168,"Ġhearing":5169,"ĠRow":5170,"557":5171,"Ġdevil":5172,"istrative":5173,"ĠPacific":5174,"Ġprove":5175,"Ġfailed":5176,"ĠPen":5177,"Ġprepare":5178,"Ġfeelings":5179,"Ġstead":5180,"Ġrevol":5181,"ĠWin":5182,"Ġanybody":5183,"ĠRichard":5184,"Ġinstinct":5185,"ĠMat":5186,"Ġopening":5187,"ĠAgain":5188,"Ġevent":5189,"Ġknees":5190,"Ġevidently":5191,"fortun":5192,"Ġwilling":5193,"ĠSunday":5194,"Ġvague":5195,"Ġearli":5196,"Ġfellows":5197,"UR":5198,"Ġstories":5199,"ems":5200,"220":5201,"izing":5202,"Ġchemical":5203,"itic":5204,"Ġlest":5205,"ĠBra":5206,"ĠDes":5207,"Good":5208,"esty":5209,"919":5210,"Ġfeatures":5211,"nce":5212,"rier":5213,"ĠEmma":5214,"ĠInst":5215,"oh":5216,"Ġ76":5217,"ibus":5218,"Ġmeasure":5219,"Ġredu":5220,"ĠFar":5221,"hand":5222,"Ġbought":5223,"Ġnine":5224,"aker":5225,"iest":5226,"Ġputting":5227,"Ġexplain":5228,"Ġcook":5229,"ĠBes":5230,"Ġdreadful":5231,"Ġende":5232,"Ġcattle":5233,"arth":5234,"ica":5235,"mar":5236,"ĠOld":5237,"113":5238,"Ġrelief":5239,"ev":5240,"Ġtum":5241,"ators":5242,"Ġflight":5243,"Ġcommunic":5244,"Ġpalace":5245,"066":5246,"Ġpowers":5247,"Ġappointed":5248,"ĠST":5249,"ĠJacob":5250,"Ġprince":5251,"Ġaltogether":5252,"Ġshown":5253,"ips":5254,"Ġlibrary":5255,"Ġadop":5256,"arest":5257,"Ġsevent":5258,"Ġnetwork":5259,"peror":5260,"Ġskin":5261,"Ġimportance":5262,"Ġsolemn":5263,"Ġweap":5264,"ending":5265,"281":5266,"enses":5267,"Ġvision":5268,"ĠItaly":5269,"terday":5270,"atives":5271,"Ġsuspect":5272,"Ġprefer":5273,"ĠMexic":5274,"Ġproduce":5275,"Ġtempt":5276,"Ġwed":5277,"Ġcup":5278,"Ġgroups":5279,"Ġpill":5280,"Ġadj":5281,"ĠExecutive":5282,"963":5283,"Ġtale":5284,"Ġcontribut":5285,"Ġpractice":5286,"Ġceased":5287,"Ġahead":5288,"onia":5289,"ĠCap":5290,"lin":5291,"Ġremarked":5292,"Ġpurs":5293,"ungle":5294,"ĠOnly":5295,"?--":5296,"St":5297,"ĠAtlantic":5298,"happ":5299,"soever":5300,"Ġeducation":5301,"Ġthrow":5302,"Ġindiff":5303,"Ġmostly":5304,"Ġbrief":5305,"Ġthorough":5306,"Ġthroat":5307,"Ġcredit":5308,"hamed":5309,"Ġep":5310,"Ġhadn":5311,"Ġsprang":5312,"Ġprinted":5313,"ades":5314,"chief":5315,"ĠLong":5316,"Ġotherwise":5317,"873":5318,"ĠJoseph":5319,"Ġsan":5320,"employ":5321,"ĠThomas":5322,"itch":5323,"aunt":5324,"213":5325,"Ġrules":5326,"ĠMichael":5327,"Ġpublished":5328,"Ġroll":5329,"Ġprevious":5330,"Ġmeadows":5331,"Ġbul":5332,"ĠEth":5333,"Ġcontrol":5334,"Ġcargo":5335,"Ġmat":5336,"ht":5337,"ĠDay":5338,"Ġcontent":5339,"ĠSocial":5340,"Ġaware":5341,"Ġrom":5342,"Ġdign":5343,"775":5344,"ĠDorothy":5345,"gest":5346,"Ġagriculture":5347,"ĠFair":5348,"Ġaffairs":5349,"ential":5350,"ĠSen":5351,"282":5352,"Ġyea":5353,"064":5354,"ari":5355,"Ġpraise":5356,"umin":5357,"Ġstepped":5358,"Ġworst":5359,"Ġ84":5360,"Ġpurcha":5361,"ĠRev":5362,"Ġpaying":5363,"Ġregarded":5364,"Ġfarther":5365,"Ġsty":5366,"575":5367,"Ġarrange":5368,"Ġinj":5369,"336":5370,"IR":5371,"ĠFin":5372,"959":5373,"Ġsatisfied":5374,"lement":5375,"iments":5376,"Ġnovel":5377,"Ġactually":5378,"Ġburied":5379,"Ġkissed":5380,"pendent":5381,"Ġseized":5382,"Ġnodd":5383,"Ġimpression":5384,"ological":5385,"Ġkings":5386,"quis":5387,"Ġtreas":5388,"Ġdemanded":5389,"Ġhun":5390,"853":5391,"Ġfrightened":5392,"ĠIr":5393,"883":5394,"Ġbesides":5395,"uts":5396,"ĠBud":5397,"Ġpowerful":5398,"ule":5399,"ĠMed":5400,"Ġdisci":5401,"Ġfiles":5402,"asp":5403,"Ex":5404,"ker":5405,"Ġbrill":5406,"Ġinform":5407,"Ġintellectual":5408,"orne":5409,"rows":5410,"Ġfishing":5411,"there":5412,"Ġmyster":5413,"Ġdrop":5414,"334":5415,"Ġproport":5416,"Ġdevelopment":5417,"Ġobliged":5418,"ett":5419,"Ġfoolish":5420,"Ġtransport":5421,"Ġmarket":5422,"Ġtight":5423,"anny":5424,"ĠNE":5425,"Ġinhabit":5426,"enger":5427,"Ġwarri":5428,"Ġcouple":5429,"Ġjoined":5430,"ĠBlack":5431,"Ġ=":5432,"Ġglor":5433,"ĠBert":5434,"Ġtech":5435,"Ġsufficient":5436,"Who":5437,"Ġkeen":5438,"ĠIndependence":5439,"rency":5440,"Ġconqu":5441,"which":5442,"Ġmoral":5443,"ĠMel":5444,"ĠAny":5445,"eder":5446,"arted":5447,"Where":5448,"place":5449,"Ġpolic":5450,"rors":5451,"Ġscattered":5452,"Ġmoments":5453,"greg":5454,"ĠBath":5455,"Ġprice":5456,"Ġincreased":5457,"Ġsoldiers":5458,"Ġmurmured":5459,"Ġinstance":5460,"Ġhighest":5461,"Ġren":5462,"ĠMaster":5463,"Ġride":5464,"rick":5465,"Ġsigh":5466,"Ġspirits":5467,"Ġsavage":5468,"Ġsuffered":5469,"Ġfold":5470,"Ġasleep":5471,"Ġsell":5472,"Ġmentioned":5473,"966":5474,"Ġfix":5475,"ĠMus":5476,"Ġrelations":5477,"Ġhelped":5478,"Ġholiday":5479,"Ġcell":5480,"940":5481,"Ġreferences":5482,"Ġbranches":5483,"acc":5484,"rass":5485,"555":5486,"Ġpoints":5487,"Ġpopular":5488,"Ġbenef":5489,"Ġselect":5490,"Ġgrim":5491,"Ġengine":5492,"Ġportion":5493,"Ġcig":5494,"ource":5495,"ĠIS":5496,"eless":5497,"ĠCoast":5498,"ĠSal":5499,"Ġgrat":5500,"ĠAssembly":5501,"Ġinstr":5502,"Ġ|":5503,"Ġgloom":5504,"Ġbelief":5505,"Ġimagination":5506,"ĠBarb":5507,"ĠSud":5508,"ĠGood":5509,"Ġbusy":5510,"change":5511,"960":5512,"Ġspect":5513,"Ġpicked":5514,"Ġlicense":5515,".''":5516,"Lat":5517,"Ġham":5518,"Ġdisg":5519,"--------------------------------":5520,"Ġstones":5521,"Ġrates":5522,"Ġended":5523,"Ġrefused":5524,"Ġexcit":5525,"don":5526,"Ġeverybody":5527,"Ġentertain":5528,"ĠGermany":5529,"enced":5530,"Ġfought":5531,"ĠFirst":5532,"Ġgrate":5533,"mbassador":5534,"ĠCharles":5535,"Ġsuit":5536,"886":5537,"Ġneeds":5538,"Ġfighting":5539,"929":5540,"Ġprincess":5541,"Ġunknown":5542,"Ġamaz":5543,"ĠSec":5544,"Ġnearer":5545,"Ġapparently":5546,"sem":5547,"iger":5548,"Ġfully":5549,"Ġcalling":5550,"Ġhotel":5551,"Ġfinger":5552,"Ġpounds":5553,"Ġstuff":5554,"689":5555,"ricity":5556,"Ġremarkable":5557,"Ġimpat":5558,"GL":5559,"Ġtur":5560,"ria":5561,"Ġdistrict":5562,"Ġcoal":5563,"chard":5564,"Ġjungle":5565,"ĠFrank":5566,"Ġbeasts":5567,"Ġpros":5568,"Ġdistant":5569,"Ġsteel":5570,"ford":5571,"Ġflo":5572,"Ġseed":5573,"999":5574,"All":5575,"Ġ<":5576,"Ġpan":5577,"Ġdelivered":5578,"Ġsuperior":5579,"Ġfederal":5580,"Ġdance":5581,"Ġseated":5582,"558":5583,"Ġglanced":5584,"Ġobey":5585,"vation":5586,"Ġrequest":5587,"Ġdeveloped":5588,"erness":5589,"Ġgay":5590,"ula":5591,"orse":5592,"ailed":5593,"Ġpersu":5594,"Ġplaying":5595,"Ġdaily":5596,"bre":5597,"ustr":5598,"Ġ1988":5599,"Ġwoodland":5600,"ĠCy":5601,"Ġ_*":5602,"ipt":5603,"Ġflower":5604,"Ġreligion":5605,"Ġcommitments":5606,"930":5607,"274":5608,"ĠThough":5609,"lim":5610,"olde":5611,"Ġcurt":5612,"Ġadvanced":5613,"ĠLike":5614,"Ġlone":5615,"Ġdriven":5616,"ĠEliz":5617,"ĠWood":5618,"ĠLabor":5619,"Ġfinding":5620,"respond":5621,"ĠGRT":5622,"Ġexcited":5623,"Ġhoriz":5624,"Ġacquaintance":5625,"ĠCor":5626,"ainted":5627,"Ġunp":5628,"Ġ86":5629,"Ġremains":5630,"Ġfalling":5631,"Ġmachinery":5632,"employment":5633,"Ġboundaries":5634,"Ġ_*_":5635,"urd":5636,"usted":5637,"Ġrights":5638,"ĠAustral":5639,"born":5640,"283":5641,"Ġfacts":5642,"Ġfreedom":5643,"ĠDIS":5644,"umber":5645,"Ġslept":5646,"Ġsucceeded":5647,"ĠNote":5648,"Ġorders":5649,"agon":5650,"Ġunderstanding":5651,"ĠNegro":5652,"Ġpriests":5653,"As":5654,"rough":5655,"osen":5656,"116":5657,"Ġpursu":5658,"Ġordered":5659,"fall":5660,"mail":5661,"ĠAL":5662,"Ġspr":5663,"iation":5664,"lag":5665,"Ġhighly":5666,"Ġofficers":5667,"Ġworthy":5668,"een":5669,"Ġrecognized":5670,"occ":5671,"ĠTHAT":5672,"Ġyesterday":5673,"Ġzone":5674,"ĠMost":5675,"ĠDid":5676,"Ġcommitted":5677,"Ġpolice":5678,"Ġobtained":5679,"Ġgenerations":5680,"Ġunits":5681,"Ġcarrying":5682,"Ġadvance":5683,"Of":5684,"Ġbag":5685,"Ġgently":5686,"Ġimage":5687,"ATION":5688,"Ġens":5689,"Ġexcitement":5690,"Ġhell":5691,"ĠBE":5692,"ardon":5693,"ĠĠĠĠĠĠĠĠĠ":5694,"Ġaltar":5695,"Ġdespair":5696,"while":5697,"Ġgain":5698,"Ġsatisfaction":5699,"ĠGreek":5700,"Ġcoffee":5701,"Ġape":5702,"Ġincrease":5703,"ĠAunt":5704,"ĠSpan":5705,"When":5706,"Ġwhenever":5707,"Ġdomestic":5708,"Ġ1994":5709,"Ġdeliver":5710,"CO":5711,"aces":5712,"Ġinternational":5713,"Ġcreating":5714,"For":5715,"Ġtrick":5716,"778":5717,"ulated":5718,"Ġnumbers":5719,"Ġashamed":5720,"Ġthrone":5721,"Ġprompt":5722,"bid":5723,"ĠSon":5724,"erson":5725,"Ġconvin":5726,"}.":5727,"Ġsaf":5728,"inging":5729,"Ġconstant":5730,"Ġnecessity":5731,",''":5732,"226":5733,"Ġpastures":5734,"Ġsmooth":5735,"Ġdw":5736,"Ġhither":5737,"ements":5738,"Ġaver":5739,"Ġreport":5740,"ĠWeb":5741,"Ġcompanions":5742,"Ġextraord":5743,"Ġbid":5744,"aced":5745,"Ġtrail":5746,"ĠASC":5747,"Ġolder":5748,"Ġfolk":5749,"578":5750,"Ġdangerous":5751,"Ġhem":5752,"Ġhoped":5753,"dra":5754,"Ġresist":5755,"Ġreligious":5756,"ĠLangu":5757,"Ġclever":5758,"Ġperforming":5759,"ĠASCII":5760,"Ġnative":5761,"Ġsuppl":5762,"Ġmood":5763,"ections":5764,"they":5765,"Ġanimals":5766,"Ġassistance":5767,"ighed":5768,"Ġunhapp":5769,"lation":5770,"Ġsinging":5771,"Ġpossibly":5772,"Ġfairly":5773,"Ġinher":5774,"619":5775,"ĠCur":5776,"Ġrout":5777,"Ġconstitution":5778,"Ġcorrect":5779,"ĠNorman":5780,"Ġdesper":5781,"Ġattached":5782,"Ġinclude":5783,"ĠClay":5784,"cis":5785,"Ġinvent":5786,"empl":5787,"Ġasking":5788,"ĠAbout":5789,"Ġrevenues":5790,"cies":5791,"Ġarable":5792,"Ġhosp":5793,"aling":5794,"Ġhorror":5795,"then":5796,"aper":5797,"anch":5798,"ĠTV":5799,"Ġregret":5800,"ĠSup":5801,"Ġemer":5802,"irth":5803,"256":5804,"Ġscream":5805,"Ġentrance":5806,"Ġgentlemen":5807,"kind":5808,"Ġbase":5809,"Ġstared":5810,"Ġemp":5811,"Ġnaturally":5812,"Ġsplendid":5813,"ĠPal":5814,"Ġsoftly":5815,"ricultural":5816,"Ġwet":5817,"Ġpromin":5818,"Ġadmitted":5819,"Ġtrop":5820,"Ġfet":5821,"Ġreck":5822,"Ġsugar":5823,"856":5824,"Ġqueer":5825,"OC":5826,"agement":5827,"Ġtask":5828,"Ġdeck":5829,"oting":5830,"Ġenth":5831,"Ġgrief":5832,"ĠGab":5833,"arly":5834,"opy":5835,"pher":5836,"Ġvote":5837,"Ġwilderness":5838,"nel":5839,"looking":5840,"sur":5841,"Ġfeared":5842,"Ġtechn":5843,"Ġrage":5844,"Ġforehead":5845,"Ġmechan":5846,"pelled":5847,"ĠSpain":5848,"Ġlear":5849,"Ġsoldier":5850,"_.":5851,"Ġscience":5852,"asy":5853,"Ġaccident":5854,"Ġemployed":5855,"Ġdru":5856,"184":5857,"oms":5858,"Ġshel":5859,"254":5860,"aches":5861,"Ġease":5862,"Ġhers":5863,"ĠRome":5864,"874":5865,"Ġevents":5866,"Ġadmit":5867,"Ġuncons":5868,"Ġstretched":5869,"ĠPet":5870,".....":5871,"astic":5872,"Ġpropriet":5873,"ĠCarrie":5874,"Ġcam":5875,"Ġapproached":5876,"124":5877,"Ġinquir":5878,"Ġconventional":5879,"Ġbodies":5880,"154":5881,"fulness":5882,"Ġrepublic":5883,"Ġendeav":5884,"ĠImp":5885,"inking":5886,"Ġcountenance":5887,"Ġappreci":5888,"orous":5889,"Ġstairs":5890,"Ġapplicable":5891,"ĠPrincess":5892,"Ġwings":5893,"Ġaltern":5894,"Ġthrust":5895,"ĠLiber":5896,"Ġderiv":5897,"will":5898,"Ġrang":5899,"ART":5900,"ĠMadame":5901,"Ġstruggle":5902,"Ġfran":5903,"551":5904,"Ġremind":5905,"gent":5906,"ĠBrown":5907,"Ġcomfortable":5908,"Ġleaned":5909,"943":5910,"Ġtal":5911,"Ġqual":5912,"Ġflood":5913,"Ġteacher":5914,"Ġpayments":5915,"Ġofficer":5916,"Ġhidden":5917,"********":5918,"ef":5919,"Ġweb":5920,"ĠEconomy":5921,"Ġdefective":5922,"communications":5923,"Ġdoct":5924,"ĠEsdr":5925,"Ġavailable":5926,"icious":5927,"Ġproc":5928,"772":5929,"Ġcheeks":5930,"iform":5931,"Ġdisappeared":5932,"Ġtu":5933,"Ġsoil":5934,"ĠSim":5935,"ĠLaw":5936,"ĠDoctor":5937,"Ġcompletely":5938,"114":5939,"Ġmistake":5940,"Ġconcl":5941,"Ġobv":5942,"pse":5943,"ĠMid":5944,"Ġexperien":5945,"Ġpractical":5946,"Ġconcerned":5947,"last":5948,"Ġpin":5949,"Ġreign":5950,"Ġwaste":5951,"Ġpred":5952,"Ġraise":5953,"Ġveget":5954,"ads":5955,"174":5956,"Ġdivided":5957,"Ġprofit":5958,"1970":5959,"xim":5960,"ĠEmbass":5961,"elig":5962,"Ġmilk":5963,"950":5964,"876":5965,"Ġgest":5966,"hank":5967,"Ġtemple":5968,"hem":5969,"Ġsomewhere":5970,"ĠDC":5971,"186":5972,"Ġfortun":5973,"903":5974,"gon":5975,"stone":5976,"Ġkindly":5977,"Ġfamous":5978,"Ġtreated":5979,"ĠGr":5980,".]":5981,"FY":5982,"ij":5983,"Ġinquired":5984,"Ġabsolutely":5985,"ĠEmbassy":5986,"Ġconclud":5987,"176":5988,"552":5989,"Ġundert":5990,"Ġhungry":5991,"utions":5992,"ĠHart":5993,"ĠDAM":5994,"ĠEconomic":5995,"Ġwol":5996,"Ġven":5997,"Ġmurder":5998,"Ġcous":5999,"ĠMos":6000,"Ġwhatsoever":6001,"overy":6002,"ieve":6003,"\"--":6004,"LO":6005,"asse":6006,"umph":6007,"long":6008,"ĠInt":6009,"Ġweary":6010,"Ġfigures":6011,"ĠAfrican":6012,"Ġdi":6013,"ĠOz":6014,"ĠStill":6015,"Ġcurios":6016,"Ġcorrespond":6017,"Ġvig":6018,"Ġvoices":6019,"ITED":6020,"Ġcrack":6021,"Ġdata":6022,"Ġjeal":6023,"156":6024,"Ġfriendly":6025,"Ġtribe":6026,"ĠChapter":6027,"Ġaffair":6028,"Ġforgot":6029,"Ġshining":6030,"ĠDuring":6031,"Ġlimitation":6032,"Ġsolid":6033,"Ġcontrary":6034,"Ġaccompan":6035,"Ġfan":6036,"ILITY":6037,"cles":6038,"Ġsmaller":6039,"Ġadvice":6040,"Ġhire":6041,"Ġfrequently":6042,"xed":6043,"Ġchosen":6044,"Did":6045,"oring":6046,"Ġgrie":6047,"Ġamid":6048,"ĠScot":6049,"Ġshouted":6050,"Ġcommercial":6051,"Ġstrike":6052,"Ġdeparted":6053,"Ġunconscious":6054,"Ġsomehow":6055,"Ġslain":6056,"ĠCharl":6057,"kins":6058,"Ġmal":6059,"Ġreward":6060,"Ġremaining":6061,"Ġfinal":6062,"Ġcastle":6063,"ĠPercent":6064,"Ġwound":6065,"Ġconnected":6066,"276":6067,"ii":6068,"ĠLittle":6069,"OD":6070,"lict":6071,"ĠLIM":6072,"rence":6073,"ĠStep":6074,"ĠSpir":6075,"Ġproceeded":6076,"ĠUpon":6077,"ĠHead":6078,"Ġfeed":6079,"aughters":6080,"ĠIndia":6081,"Ġstayed":6082,"Ġgreet":6083,"Ġstern":6084,"five":6085,"sha":6086,"Ġpushed":6087,"ateral":6088,"AY":6089,"Ġbearing":6090,"Ġblessed":6091,"icity":6092,"Ġsounds":6093,"Ġprinciple":6094,"Ġthei":6095,"ĠCath":6096,"Ġcircle":6097,"ilities":6098,"419":6099,"Ġshade":6100,"884":6101,"Ġsafety":6102,"Ġnav":6103,"136":6104,"Mr":6105,"cript":6106,"Ġresearch":6107,"Ġsacrifice":6108,"049":6109,"216":6110,"Ġpresented":6111,"Ġstyle":6112,"094":6113,"Ġabsence":6114,"Ġfamilies":6115,"bly":6116,"Ġequally":6117,"Ġreplacement":6118,"572":6119,"Ġgrey":6120,"Ġpause":6121,"ĠAc":6122,"urst":6123,"LI":6124,"Ġlights":6125,"Ġskill":6126,"Ġburning":6127,"pless":6128,"Ġvariety":6129,"1987":6130,"urely":6131,"Ġtail":6132,"Ġemotion":6133,"Ġlonely":6134,"Ġdaughters":6135,"ĠMen":6136,"Ġcomparative":6137,"new":6138,"Ġpartly":6139,"Ġentity":6140,"Ġcabin":6141,"Ġsympathy":6142,"Go":6143,"Ġworn":6144,"ternet":6145,"Ġcareful":6146,"Ġdoc":6147,"Ġfeast":6148,"cia":6149,"134":6150,"Ġdestroyed":6151,"ĠRobert":6152,"Ġdesired":6153,"thew":6154,"Ġlover":6155,"Ġparagraphs":6156,"ĠTele":6157,"gress":6158,"571":6159,"Ġcart":6160,"Ġfrank":6161,"ĠBa":6162,"Ġvac":6163,"Ġunex":6164,"Ġexpenses":6165,"ĠSupreme":6166,"ĠCr":6167,"Ġquality":6168,"Ġchoice":6169,"ĠLIMITED":6170,"oused":6171,"Ġtruly":6172,"Ġtour":6173,"Ġextraordinary":6174,"Ġfil":6175,"ulse":6176,"854":6177,"ĠDAMAG":6178,"Ġstup":6179,"Ġexpressed":6180,"power":6181,"van":6182,"omen":6183,"ĠLI":6184,"ground":6185,"Ġderivative":6186,"Ġinhabitants":6187,"Ġbond":6188,"Ġwelcome":6189,"Ġnervous":6190,"758":6191,"time":6192,"Ġstiff":6193,"Ġlion":6194,"771":6195,"Ġdawn":6196,"Ġjealous":6197,"ĠBet":6198,"Ġbridge":6199,"Ġlabour":6200,"Ġyards":6201,"Ġenthus":6202,"ĠOut":6203,"Ġlands":6204,"oup":6205,"Ġpressed":6206,"ĠĠĠĠĠĠĠĠĠĠĠĠĠĠĠĠĠĠĠĠĠĠĠĠ":6207,"ims":6208,"ĠJon":6209,"Ġther":6210,"ĠAng":6211,"Ġrefer":6212,"irect":6213,"Ġclosely":6214,"OOK":6215,"Ġtheory":6216,"Ġ39":6217,"Ġindign":6218,"cribe":6219,"Ġparents":6220,"fle":6221,"uit":6222,"Ġgau":6223,"ĠVir":6224,"Ġescaped":6225,"Ġlaughter":6226,"920":6227,"Ġnewsp":6228,"ĠDuke":6229,"Ġabroad":6230,"Ġprayer":6231,"ND":6232,"Ġmental":6233,"Ġwrit":6234,"Ġbowed":6235,"Ġrend":6236,"Ġattitude":6237,"Ġblank":6238,"Ġinterrupted":6239,"Ġjoin":6240,"Ġhundreds":6241,"Ġreasons":6242,"Ġislands":6243,"Ġwheel":6244,"Ġgranted":6245,"Ġslaves":6246,"board":6247,"bted":6248,"Ġrolled":6249,"Ġconscience":6250,"ĠWhite":6251,"Ġcenter":6252,"Ġcomplying":6253,"rod":6254,"inea":6255,"Ġredistribut":6256,"Ġwhisper":6257,"Ġaband":6258,"Ġsore":6259,"Ġprospect":6260,"ĠVict":6261,"Ġpressure":6262,"July":6263,"ĠGrand":6264,"achel":6265,"Ġassured":6266,"Ġcitiz":6267,"isher":6268,"214":6269,"Ġwrath":6270,"553":6271,"Ġmistress":6272,"ĠLake":6273,"Ġexhib":6274,"aks":6275,"236":6276,"Ġrestrict":6277,"ointment":6278,"iscal":6279,"Ġcuriosity":6280,"book":6281,"Ġdiam":6282,"ĠFanny":6283,"284":6284,"234":6285,"pected":6286,"ilateral":6287,"aret":6288,"Ġclouds":6289,"Ġft":6290,"Ġlamp":6291,"Ġlux":6292,"ĠBuck":6293,"910":6294,"Ġjob":6295,"Ġobst":6296,"Ġseries":6297,"inger":6298,"Ġpages":6299,"idity":6300,"ĠAmbassador":6301,"Ġleader":6302,"Ġfranc":6303,"Ġknife":6304,"Ġdonate":6305,"ĠCast":6306,"Ġimmense":6307,"Ġyounger":6308,"Ġminds":6309,"Ġcreatures":6310,"Ġthousands":6311,"ĠClimate":6312,"ĠAgriculture":6313,"ĠMaj":6314,"mark":6315,"Ġprecious":6316,"Ġsmell":6317,"held":6318,"erick":6319,"Ġtho":6320,"ĠAGRE":6321,"Ġsac":6322,"Ġprocessing":6323,"Ġconstruction":6324,"ĠEuropean":6325,"Ġice":6326,"Ġalle":6327,"Ġmanif":6328,"Ġsup":6329,"ĠUnder":6330,"ĠCommunist":6331,"Ġcaut":6332,"arse":6333,"ashing":6334,"verse":6335,"Ġrum":6336,"ĠLatin":6337,"Ġge":6338,"ala":6339,"rett":6340,"Ġsurv":6341,"ministrative":6342,"Ġenergy":6343,"ĠLook":6344,"Ġjur":6345,"Ġnodded":6346,"Ġate":6347,"489":6348,"ounce":6349,"Ġmortality":6350,"Ġcontaining":6351,"Ġindustrial":6352,"781":6353,"tle":6354,"782":6355,"Ġdeeply":6356,"Ġcord":6357,"ĠServ":6358,"ourse":6359,"040":6360,"fect":6361,"Ġghost":6362,"Ġrepresented":6363,"Ġsem":6364,"Ġadject":6365,"Ġrealized":6366,"hon":6367,"ĠAct":6368,"Ġquant":6369,"Ġarticle":6370,"ĠSince":6371,"Ġstret":6372,"ĠAmong":6373,"Ġdying":6374,"Ġemperor":6375,"Ġcorrupt":6376,"zed":6377,"ĠSer":6378,"379":6379,"after":6380,"Ġglim":6381,"ension":6382,"Ġexpectancy":6383,"Ġshowing":6384,"Ġcease":6385,"Ġrocks":6386,"ustomed":6387,"Ġfertility":6388,"Ġmethods":6389,"IX":6390,"Ġshock":6391,"ĠDiana":6392,"},":6393,"ata":6394,"Ġnoght":6395,"ĠArmy":6396,"Ġnaked":6397,"emn":6398,"Ġdomin":6399,"Ġcrying":6400,"ĠPat":6401,"yer":6402,"ault":6403,"ustries":6404,"Ġflung":6405,"ĠForce":6406,"ĠLouis":6407,"ĠDar":6408,"Ġunable":6409,"639":6410,"573":6411,"Ġsending":6412,"ertainly":6413,"Ġtitle":6414,"ĠBesides":6415,"ros":6416,"ĠHoly":6417,"vester":6418,"Ġangel":6419,"eper":6420,"Ġdelicate":6421,"Ġrushed":6422,"ĠMarilla":6423,"Ġcosts":6424,"Ġbos":6425,"Ġlat":6426,"ĠBo":6427,"286":6428,"Ġwriter":6429,"582":6430,"500":6431,"BR":6432,"bing":6433,"Ġrent":6434,"onder":6435,"Ġuseful":6436,"ĠChristmas":6437,"Ġmigration":6438,"ĠHave":6439,"agger":6440,"773":6441,"ĠRowland":6442,"irty":6443,"Ġanal":6444,"Ġagricultural":6445,"Ġunus":6446,"Ġstandard":6447,"Ġtroubled":6448,"ĠOrgan":6449,"ds":6450,"Ġcontinue":6451,"father":6452,"owned":6453,"752":6454,"Ġfifteen":6455,"ĠSometimes":6456,"met":6457,"ĠSar":6458,"389":6459,"umped":6460,"Ġprime":6461,"Ġdesk":6462,"ĠMatthew":6463,"ĠCatholic":6464,"ĠNatural":6465,"Ġconstit":6466,"Ġsex":6467,"ĠCam":6468,"burg":6469,"Ġnoun":6470,"ĠRat":6471,"Ġexped":6472,"Ġpuzz":6473,"Ġmild":6474,"429":6475,"rait":6476,"uffrage":6477,"Ġmultitude":6478,"Ġcriminal":6479,"Ġwra":6480,"Ġhir":6481,"iece":6482,"fts":6483,"Ġbecoming":6484,"ĠBul":6485,"Ġslipped":6486,"CC":6487,"ĠChan":6488,"ĠChic":6489,"Ġinstruct":6490,"Your":6491,"Ġcontempt":6492,"Ġkindness":6493,"ĠEnvironment":6494,"Ġpink":6495,"ĠTro":6496,"yard":6497,"ĠChina":6498,"Ġchest":6499,"Ġevident":6500,"orter":6501,"Ġthunder":6502,"Ġconvinced":6503,"Ġgift":6504,"Ġthinks":6505,"Ġexpense":6506,"zing":6507,"Ġsomebody":6508,"Ġobsc":6509,"Ġtank":6510,"Ġfriendship":6511,"Ġfo":6512,"Ġinstantly":6513,"Ġinterests":6514,"Ġshadows":6515,"Ġcentral":6516,"Ġhopes":6517,"Here":6518,"iel":6519,"Ġscient":6520,"Ġchat":6521,"lebr":6522,"enth":6523,"Ġplenty":6524,"Ġconsult":6525,"Ġunhappy":6526,"Ġaunt":6527,"utation":6528,"ĠSara":6529,"Ġunfortun":6530,"Ġlust":6531,"Ġuniform":6532,"Ġburnt":6533,"ĠNothing":6534,"ĠTerrit":6535,"Ġplans":6536,"Ġmurd":6537,"riel":6538,"Ġshr":6539,"079":6540,"ĠThose":6541,"via":6542,"Ġx":6543,"Ġapply":6544,"ĠCommunications":6545,"ĠSpanish":6546,"An":6547,"low":6548,"Ġshoes":6549,"Ġdigits":6550,"Ġbrilliant":6551,"itate":6552,"Ġcere":6553,"ĠFrancis":6554,"umes":6555,"Ġdreams":6556,"Ġarranged":6557,"059":6558,"ĠJurg":6559,"Ġdetails":6560,"Ġearlier":6561,"Ġvirtue":6562,"Ġrange":6563,"Ġlistening":6564,"Ġseparate":6565,"ĠHam":6566,"Ġshield":6567,"Ġspare":6568,"Ġcompet":6569,"ĠSte":6570,"arrass":6571,"Ġadjective":6572,"iture":6573,"Ġalter":6574,"Ġwholly":6575,"Ġlandl":6576,"Ġcollect":6577,"gregation":6578,"Ġegg":6579,"ores":6580,"Ġsooner":6581,"'.":6582,"aps":6583,"Ġgradually":6584,"iversity":6585,"sheba":6586,"Ġavoid":6587,"Ġmember":6588,"581":6589,"Ġacts":6590,"Ġsurrounded":6591,"Ġmiserable":6592,"Very":6593,"Ġ/":6594,"Ġsource":6595,"otes":6596,"Ġexha":6597,"319":6598,"479":6599,"Ġproposed":6600,"Ġsumm":6601,"Ġflew":6602,"mosp":6603,"Ġmile":6604,"Ġprosper":6605,"ĠInternet":6606,"Ġhelpless":6607,"rog":6608,"670":6609,"Ġsouls":6610,"____":6611,"cknow":6612,"ean":6613,"vy":6614,"Ġpig":6615,"Ġstaff":6616,"ĠDep":6617,"751":6618,"Ġbilateral":6619,"Ġhollow":6620,"Ġere":6621,"ĠDen":6622,"Ġdemon":6623,"Ġresem":6624,"Ġelder":6625,"Ġproportion":6626,"aur":6627,"Ġtoday":6628,"omon":6629,"Ġatmosp":6630,"ĠCas":6631,"Ġaccordance":6632,"ĠColonel":6633,"Ġadventure":6634,"ilst":6635,"nora":6636,"arian":6637,"Ġnotes":6638,"Ġwheat":6639,"Ġintention":6640,"Ġbringing":6641,"Ġsins":6642,"Ġwinds":6643,"Ġwondering":6644,"Ġsuffering":6645,"Ġreasonable":6646,"Ġabsurd":6647,"Ġbla":6648,"ĠSand":6649,"Ġliqu":6650,"Ġcharming":6651,"ĠLucy":6652,"ĠLegislative":6653,"rison":6654,"adem":6655,"ĠThea":6656,"Ġconven":6657,"Ġbands":6658,"Ġabrupt":6659,"Ġintroduced":6660,"Ġextremely":6661,"ĠEX":6662,"Ġtrembling":6663,"Ġox":6664,"Ġlighted":6665,"liament":6666,"ĠBecause":6667,"Ġsystems":6668,"Ġdogs":6669,"Te":6670,"bour":6671,"Ġintense":6672,"ache":6673,"Ġhole":6674,"ĠHarvester":6675,"Ġsigns":6676,"Ġoccasionally":6677,"PU":6678,"Ġdoth":6679,"ĠMount":6680,"ĠLap":6681,"Ġarise":6682,"ILL":6683,"Ġconsequence":6684,"surface":6685,"emed":6686,"Ġscorn":6687,"consumer":6688,"Ġfac":6689,"Ġmisery":6690,"Ġtiny":6691,"Ġgla":6692,"Ġimpl":6693,"Ġenorm":6694,"Ġimpress":6695,"Ġexcuse":6696,"Ġdrunk":6697,"ĠChicago":6698,"Ġacknow":6699,"Ġhorn":6700,"Ġstaring":6701,"Ġemail":6702,"Ġarticles":6703,"racy":6704,"Ġtimber":6705,"Ġric":6706,"Are":6707,"Ġexport":6708,"Ġreaching":6709,"ĠGrace":6710,"elle":6711,"Ġcelebr":6712,"Ġmysterious":6713,"ĠBathsheba":6714,"Ġhated":6715,"Ġembarrass":6716,"Ġgaze":6717,"Ġcotton":6718,"Ġbetray":6719,"Ġcontinually":6720,"lain":6721,"ĠAustralia":6722,"Ġcrude":6723,"Ġsleeping":6724,"Ġtreatment":6725,"Ġconsciousness":6726,"west":6727,"Ġlake":6728,"Ġgates":6729,"Ġrust":6730,"ugg":6731,"icam":6732,"Ġforces":6733,"679":6734,"opyright":6735,"ĠTher":6736,"......":6737,"Ġ501":6738,"Ġjew":6739,"783":6740,"Ġtrial":6741,"Ġprisoner":6742,"ĠCentral":6743,"mother":6744,"Ġax":6745,"Ġmatch":6746,"Ġreceipt":6747,"Ġinnocent":6748,"Ġcla":6749,"Ġgained":6750,"oser":6751,"Ġagent":6752,"069":6753,"asant":6754,"ĠAcc":6755,"359":6756,"ĠAngel":6757,"ĠMaritime":6758,"Ġcounter":6759,"Ġexercise":6760,"urse":6761,"ĠBern":6762,"Ġ49":6763,"Ġcentre":6764,"Ġincreasing":6765,"ĠEach":6766,"650":6767,"equ":6768,"753":6769,"ĠZe":6770,"Ġdistinguished":6771,"rous":6772,"Ġsank":6773,"ieved":6774,"250":6775,"Ġforever":6776,"tis":6777,"Ġhint":6778,"Ġrear":6779,"Ġreform":6780,"Ġthanks":6781,"Ġruin":6782,"Ġwounded":6783,"459":6784,"Ġprepar":6785,"acles":6786,"Ġpoison":6787,"Ġclothing":6788,"Ġhurry":6789,"Ġech":6790,"ĠGord":6791,"Ġguide":6792,"ĠElnora":6793,"Ġterritory":6794,"Ġtropical":6795,"hall":6796,"Ġconcept":6797,"Ġ09":6798,"ĠFM":6799,"629":6800,"ĠThy":6801,"Ġobtaining":6802,"Ġaudience":6803,"va":6804,"ndar":6805,"ams":6806,"ĠBer":6807,"Ġhesitated":6808,"Ġsurround":6809,"Ġgauge":6810,"Ġsalt":6811,"IVE":6812,"ĠJim":6813,"Ġarrest":6814,"uable":6815,"athan":6816,"Ġgets":6817,"ĠRevolution":6818,"Ġbosom":6819,"ĠJurgis":6820,"HT":6821,"odes":6822,"Ġmarine":6823,"Ġdelay":6824,"Ġmales":6825,"Ġspark":6826,"Ġactivity":6827,"Ġbend":6828,"ĠLove":6829,"Ġ80":6830,"Ġregion":6831,"Ġbulk":6832,"Ġaccompanied":6833,"Ġshoot":6834,"Ġunl":6835,"ĠHall":6836,"ĠCle":6837,"ĠThrough":6838,"Ġcouncil":6839,"ĠDel":6840,"Ġpractically":6841,"Ġcousin":6842,"ĠFel":6843,"Ġblame":6844,"ĠKe":6845,"Ġtradition":6846,"Ġrank":6847,"ĠAnother":6848,"Ġyard":6849,"ĠProt":6850,"Ġcommunity":6851,"this":6852,"udd":6853,"cca":6854,"Ġcheek":6855,"Ġaloud":6856,"Ġstands":6857,"Ġcareer":6858,"Ġroads":6859,"ĠCapital":6860,"ĠSun":6861,"Ġafterward":6862,"Ġacid":6863,"Ġconversion":6864,"050":6865,"Ġeverywhere":6866,"Ġhaste":6867,"ĠGeography":6868,"Ġmagnific":6869,"089":6870,"Ġqueen":6871,"Ġliterature":6872,"vest":6873,"Ġsang":6874,"ACH":6875,"ĠEC":6876,"Ġresolved":6877,"Ġprecise":6878,"583":6879,"Ġsentiment":6880,"Ġhorrible":6881,"Ġmetal":6882,"Ġcounsel":6883,"*,":6884,"rated":6885,"ĠHim":6886,"ĠRob":6887,"Ġrecoll":6888,"Ġinherit":6889,"pri":6890,"Ġlap":6891,"umption":6892,"Ġpron":6893,"Ġsuccessful":6894,"Ġaspect":6895,"ieur":6896,"Ġfinan":6897,"Ġsolicit":6898,"Ġcompass":6899,"Ġcapable":6900,"Ġfaithful":6901,"Ġinvestig":6902,"ĠBertram":6903,"uan":6904,"Ġtoss":6905,"Ġpipe":6906,"ulating":6907,"ĠGirl":6908,"cks":6909,"Ġreturning":6910,"Ġcharm":6911,"Ġgenius":6912,"DB":6913,"hant":6914,"Ġpaint":6915,"449":6916,"Ġtriumph":6917,"ipping":6918,"Ġimprove":6919,"Ġhanging":6920,"ĠType":6921,"pent":6922,"Ġrow":6923,"329":6924,"Ġinfinite":6925,"Ġmaterials":6926,"Ġmystery":6927,"icameral":6928,"ĠGordon":6929,"itan":6930,"Ġfulf":6931,"Ġwhist":6932,"olate":6933,"ĠRelig":6934,"ĠLyd":6935,"bel":6936,"Ġedition":6937,"AE":6938,"ĠIm":6939,"ĠOt":6940,"ĠVen":6941,"Ġhyp":6942,"ĠMexico":6943,"Ġwave":6944,"Ġreported":6945,"Ġswept":6946,"Ġoccupation":6947,"Ar":6948,"ĠMil":6949,"ĠStre":6950,"Ġsupply":6951,"Ġ1987":6952,"Ġiniqu":6953,"Ġradio":6954,"ns":6955,"Ġascend":6956,"Ġrush":6957,"Ġspl":6958,"Ġclo":6959,"denly":6960,"Ġtower":6961,"ĠVictor":6962,"ĠGreen":6963,"ĠDick":6964,"ĠRos":6965,"Ġcopper":6966,"Ġdivine":6967,"Ġobjects":6968,"Ġwaves":6969,"Ġhence":6970,"Ġvisible":6971,"Ġwretched":6972,"Ġdistress":6973,"Ġrecent":6974,"ĠIndustrial":6975,"ĠExchange":6976,"ĠItalian":6977,"Ġdeliber":6978,"some":6979,"Ġregistered":6980,"Ġflour":6981,"Ġflame":6982,"Ġdignity":6983,"IV":6984,"ician":6985,"Ġgri":6986,"ĠHon":6987,"Ġshru":6988,"669":6989,"Ġelected":6990,"Ġreceiving":6991,"Ġabsor":6992,"Ġderived":6993,"Ġflying":6994,"ĠRog":6995,"Ġremove":6996,"Ġpatient":6997,"rified":6998,"vis":6999,"Ġwilt":7000,"Ġcoc":7001,"Ġusable":7002,"Ġpreced":7003,"ishes":7004,"Ġowns":7005,"Ġconsist":7006,"Ġdestruction":7007,"Ġdelighted":7008,"Ġintelligence":7009,"Ġprovisions":7010,"Ġforgive":7011,"ĠOverview":7012,"ĠSolomon":7013,"Ġswell":7014,"Ġconfusion":7015,"Ġperceived":7016,"otted":7017,"ocation":7018,"Ġnecessarily":7019,"Ġdrinking":7020,"Ġvessels":7021,"DER":7022,"ange":7023,"080":7024,"Ġinsisted":7025,"ĠRebe":7026,"Ġgazed":7027,"Ġsq":7028,"Ġhal":7029,"ĠBank":7030,"erver":7031,"Ġplat":7032,"Ġcontract":7033,"Ġjuris":7034,"Ġbree":7035,"Ġlam":7036,"ggy":7037,"ĠConf":7038,"Ġheavily":7039,"Ġabund":7040,"Ġamuse":7041,"ĠCoastline":7042,"ĠTime":7043,"Ġworship":7044,"Ġscr":7045,"ĠTerrain":7046,"Ġspecified":7047,"Ġcas":7048,"Ġdrank":7049,"660":7050,"Ġsimpl":7051,"Ġbecomes":7052,"ĠWHO":7053,"Ġdiscovery":7054,"ĠLapham":7055,"Ġrelation":7056,"Ġdefinite":7057,"ĠPolitical":7058,"Ġatmosphere":7059,"Ġcompre":7060,"cery":7061,"Ġtort":7062,"ĠLib":7063,"Ġstraw":7064,"PR":7065,"Ġsecurity":7066,"ĠGuinea":7067,"ĠSpirit":7068,"more":7069,"Ġfund":7070,"Ġsighed":7071,"989":7072,"Ġovert":7073,"Ġaccustomed":7074,"ĠExcept":7075,"Ġbrothers":7076,"Ġhistor":7077,"Ġsanct":7078,"Ġbew":7079,"ĠPortug":7080,"cra":7081,"ĠBirth":7082,"Ġretreat":7083,"Ġmerchant":7084,"Ġcultiv":7085,"ĠVirgin":7086,"back":7087,"astern":7088,"reckles":7089,"standing":7090,"lon":7091,"Ġglo":7092,"Ġphot":7093,"IRE":7094,"Ġcared":7095,"ĠJude":7096,"Ġspiritual":7097,"Ġtelephones":7098,"ĠStrether":7099,"ĠHist":7100,"Ġcongregation":7101,"Ġends":7102,"Ġod":7103,"ldom":7104,"ranches":7105,"ishop":7106,"Ġrefuse":7107,"Ġprivile":7108,"Ġcheerful":7109,"rate":7110,"ĠUnd":7111,"POL":7112,"ĠTess":7113,"uries":7114,"Ġclub":7115,"Ġperformed":7116,"Ġburned":7117,"PO":7118,"Ġ****":7119,"Ġ111":7120,"Ġexec":7121,"ocracy":7122,"ĠIND":7123,"Ġpursued":7124,"era":7125,"ĠPorts":7126,"Ġutterly":7127,"jud":7128,"Ġmud":7129,"Ġ115":7130,"ĠWould":7131,"Ġfever":7132,"Ġhanded":7133,"roads":7134,"ĠCongress":7135,"hic":7136,"Ġthence":7137,"ĠAlso":7138,"Ġslavery":7139,"Ġclasses":7140,"ĠSuddenly":7141,"Ġpardon":7142,"Ġlun":7143,"ĠTake":7144,"Ġarmed":7145,"Ġaddressed":7146,"Ġsilk":7147,"Ġargument":7148,"Have":7149,"Per":7150,"Ġach":7151,"Ġcents":7152,"ĠThree":7153,"asped":7154,"Ġstair":7155,"Ġcomplex":7156,"Ġhospital":7157,"ka":7158,"Ġshone":7159,"Ġignorant":7160,"Ġstam":7161,"Ġshake":7162,"Ġthoroughly":7163,"Ġerect":7164,"ĠTra":7165,"Ġ1986":7166,"ĠEr":7167,"Ġdise":7168,"Ġreality":7169,"ĠUse":7170,"Ġconnection":7171,"och":7172,"Ġming":7173,"Ġpant":7174,"Ġ102":7175,"onsieur":7176,"OF":7177,"ĠMars":7178,"Ġmeal":7179,"Ġappeal":7180,"Ġtroops":7181,"col":7182,"Ġbeard":7183,"ĠEnd":7184,"Ġplains":7185,"onym":7186,"Ġsed":7187,"ĠFlag":7188,"776":7189,"ĠUncle":7190,"Ġmerry":7191,"\",":7192,"ĠSel":7193,"Ġchin":7194,"ildred":7195,"Ġindependent":7196,"Ġmedic":7197,"sych":7198,"Will":7199,"Ġ125":7200,"ĠBill":7201,"ĠJoe":7202,"rigated":7203,"ĠPresently":7204,"BRD":7205,"meter":7206,"unning":7207,"Ġnights":7208,"Ġglorious":7209,"096":7210,"ĠAvenue":7211,"ordan":7212,"Ġdesir":7213,"ĠAdj":7214,"Ġpolit":7215,"Ġprofound":7216,"ĠTelecommunications":7217,"ya":7218,"ĠNature":7219,"Ġsomeone":7220,"Ġcopied":7221,"Ġreader":7222,"Ġamongst":7223,"Ġirrit":7224,"Ġbab":7225,"Ġbones":7226,"Ġdared":7227,"576":7228,"Ġdescription":7229,"Ġpainted":7230,"Ġspecific":7231,"Ġversion":7232,"UD":7233,"dated":7234,"emen":7235,"onsense":7236,"Ġrecomm":7237,"asket":7238,"Ġneglect":7239,"sen":7240,"urance":7241,"Ġframe":7242,"ĠLydgate":7243,"Ġpour":7244,"Ġnorthern":7245,"ilty":7246,"ella":7247,"Ġpreserve":7248,"Ġviolent":7249,"On":7250,"Ġvice":7251,"Ġwrought":7252,"Ġemployees":7253,"top":7254,"uce":7255,"who":7256,"osure":7257,"ĠRail":7258,"Ġouter":7259,"Ġarray":7260,"Ġsteep":7261,"ĠAdministrative":7262,"Ġcollege":7263,"ĠIMF":7264,"Ġborder":7265,"Ġtab":7266,"Ġsignific":7267,"Ġbelonged":7268,"Ġadopted":7269,"Ġcoo":7270,"Ġwhence":7271,"Ġindul":7272,"matic":7273,"ston":7274,"Ġcontained":7275,"Ġconsideration":7276,"Ġapplied":7277,"ĠEdward":7278,"ĠIII":7279,"774":7280,"Ġinterf":7281,"eve":7282,"Ġrender":7283,"ĠEve":7284,"Ġsteady":7285,"Ġsuffic":7286,"Ġsettle":7287,"rep":7288,"ller":7289,"Ġ105":7290,"about":7291,"iere":7292,"alties":7293,"Ġunexpected":7294,"Ġpoured":7295,"ĠFreckles":7296,"ĠAsh":7297,"ĠUnemployment":7298,"Ġfourth":7299,"Ġplainly":7300,"Ġviolence":7301,"ĠMildred":7302,"ĠIndustries":7303,"Ġdepth":7304,"MO":7305,"ige":7306,"icken":7307,"ĠChad":7308,"Ġweakness":7309,"Ġfinancial":7310,"Ġintent":7311,"Ġcalls":7312,"Ġdepends":7313,"Ġenormous":7314,"diction":7315,"tr":7316,"ĠChe":7317,"ĠVin":7318,"Ġawake":7319,"Ġsubjects":7320,"sm":7321,"aders":7322,"Ġseldom":7323,"Ġexempt":7324,"1985":7325,"Ġarrival":7326,"Ġdwelt":7327,"Ġlearning":7328,"ctions":7329,"Ġmoder":7330,"Ġannounced":7331,"nal":7332,"armed":7333,"Ġ117":7334,"Ġexceedingly":7335,"Ġbeheld":7336,"Ġshaking":7337,"ĠInfant":7338,"Ġbottle":7339,"Ġtied":7340,"Ġmanaged":7341,"ĠOff":7342,"554":7343,"Ġvisited":7344,"shine":7345,"ums":7346,"Ġdirected":7347,"Ġimagined":7348,"Ġleaning":7349,"ĠCla":7350,"Ġrested":7351,"Ġresponsibility":7352,"Ġvine":7353,"Ġswung":7354,"Ġsuspicion":7355,"Ġgrain":7356,"Ġseriously":7357,"ais":7358,"Ġdancing":7359,"atched":7360,"Ġhab":7361,"Ġdollar":7362,"othea":7363,"Ġtar":7364,"Ġmixed":7365,"Ġplun":7366,"Ġlegisl":7367,"ĠRebecca":7368,"ride":7369,"ĠBu":7370,"Ġmanners":7371,"Ġactual":7372,"ĠTurk":7373,"ĠTell":7374,"Ġsection":7375,"Ġscra":7376,"ĠVol":7377,"Ġkinds":7378,"Ġvaluable":7379,"ĠAirports":7380,"da":7381,"Ġug":7382,"Ġstronger":7383,"Ġwarriors":7384,"inate":7385,"Ġcave":7386,"Ġlic":7387,"ĠSuffrage":7388,"raham":7389,"Ġdoorway":7390,"Ġdiscussion":7391,"Ġ107":7392,"Ġbeloved":7393,"Ġcritical":7394,"Ġtanker":7395,"Ġsouthern":7396,"Ġrepent":7397,"upon":7398,"Ġmonarch":7399,"Ġwishes":7400,"liness":7401,"omed":7402,"Ġwhilst":7403,"Ġideal":7404,"Ġsuggestion":7405,"ĠJews":7406,"ĠElectricity":7407,"Ġheed":7408,"Ġnoted":7409,"Ġcomment":7410,"Ġclock":7411,"Ġbrow":7412,"Ġdepartment":7413,"when":7414,"Ġsetting":7415,"Ġdrift":7416,"Ġpunishment":7417,"Be":7418,"Ġstoo":7419,"Ġnoon":7420,"Ġtowns":7421,"Ġwedding":7422,"gments":7423,"had":7424,"Ġfasc":7425,"Ġmaiden":7426,"Ġfurniture":7427,"nam":7428,"aned":7429,"Ġknock":7430,"Ġleaped":7431,"Ġloving":7432,"Ġdevoted":7433,"Ġocean":7434,"Ġbrass":7435,"Ġvolume":7436,"Ġeleven":7437,"istration":7438,"hara":7439,"Ġrolling":7440,"Ġguests":7441,"part":7442,"ĠTill":7443,"Ġabide":7444,"649":7445,"ĠInflation":7446,"ĠAlexander":7447,"ĠEthnic":7448,"Ġrestrictions":7449,"bow":7450,"Ġtorn":7451,"Ġloo":7452,"Ġlect":7453,"ida":7454,"ĠBoth":7455,"Ġsovere":7456,"Ġswall":7457,"Ġprinciples":7458,"Ġgovernor":7459,"Ġcher":7460,"Ġreflected":7461,"ĠShall":7462,"Ġgesture":7463,"case":7464,"lar":7465,"Ġshelf":7466,"ittee":7467,"Ġincident":7468,"Ġdefe":7469,"Ġextended":7470,"Ġlargely":7471,"Ġlift":7472,"ĠJordan":7473,"ĠXV":7474,"Ġdelightful":7475,"Ġbroadcast":7476,"urate":7477,"ĠSaul":7478,"rian":7479,"ĠOak":7480,"iveness":7481,"Ġopposition":7482,"Ġprofession":7483,"Ġadmiration":7484,"ĠService":7485,"Ġlock":7486,"ĠIll":7487,"Ġgross":7488,"step":7489,"ĠOP":7490,"Ġstrict":7491,"Ġstatement":7492,"Ġseparated":7493,"oked":7494,"450":7495,"erer":7496,"Ġtells":7497,"Ġbreaking":7498,"ĠExports":7499,"Ġburden":7500,"Ġenjoyed":7501,"ĠLily":7502,"979":7503,"Ġrecon":7504,"ĠDorothea":7505,"XX":7506,"oles":7507,"ĠJos":7508,"Ġprey":7509,"Ġvel":7510,"edy":7511,"Ġprovision":7512,"Ġanxiety":7513,"Ġaverage":7514,"Ġlocked":7515,"ĠRachel":7516,"Ġliability":7517,"ormal":7518,"586":7519,"Ġpurple":7520,"Ġassure":7521,"Ġprinces":7522,"ULL":7523,"000000":7524,"Ġrisk":7525,"OW":7526,"Ġga":7527,"ĠBRE":7528,"Ġrug":7529,"Ġriding":7530,"Ġbutter":7531,"Ġ59":7532,"Ġurged":7533,"ĠBudget":7534,"Ġjurisdiction":7535,"May":7536,"ĠTroy":7537,"ĠDiplomatic":7538,"574":7539,"Ġfrequent":7540,"rained":7541,"Ġsyn":7542,"ĠINTER":7543,"Ġcharacters":7544,"Ġignorance":7545,"oa":7546,"icated":7547,"Ġunre":7548,"9432":7549,"Ġschol":7550,"hte":7551,"ication":7552,"utch":7553,"Ġcompelled":7554,"Ġoccasional":7555,"Ġsharply":7556,"Ġduties":7557,"ĠImports":7558,"Ġtheat":7559,"ĠWithout":7560,"Ġshelter":7561,"Ġdining":7562,"ĠDun":7563,"ĠJudicial":7564,"Ġsacred":7565,"Ġgrin":7566,"Ġowned":7567,"ĠExternal":7568,"mond":7569,"Ġ127":7570,"--'":7571,"Ġobserve":7572,"Ġsaint":7573,"Ġpace":7574,"Ġeating":7575,"Ġconstantly":7576,"Ġore":7577,"Ġnurse":7578,"Ġendure":7579,"Ġwarrant":7580,"Ġdamages":7581,"IGHT":7582,"Thank":7583,"Ġcoven":7584,"Ġsounded":7585,"ĠCarl":7586,"Ġapartment":7587,"Ġdescended":7588,"Ġ101":7589,"Ġ108":7590,"ĠSing":7591,"ĠMember":7592,"anta":7593,"Ġconsists":7594,"Ġdisplayed":7595,"Ġtin":7596,"Ġhind":7597,"ĠGrett":7598,"Ġgrant":7599,"aping":7600,"Ġridic":7601,"Ġchain":7602,"ĠLiteracy":7603,"oston":7604,"Ġconsent":7605,"het":7606,"Ġintim":7607,"Ġillustr":7608,"Ġoath":7609,"ĠColl":7610,"Ġbloom":7611,"alendar":7612,"526":7613,"Ġsunshine":7614,"Ġquarters":7615,"ĠLegal":7616,"ĠCurrency":7617,"Ġscientific":7618,"eel":7619,"Ġbay":7620,"ĠSH":7621,"ĠBay":7622,"Ġcritic":7623,"Ġinclined":7624,"Ġweapons":7625,"bu":7626,"Ġgravel":7627,"ITH":7628,"hend":7629,"aron":7630,"ĠBook":7631,"Ġbegged":7632,"784":7633,"584":7634,"Ġeagerly":7635,"Ġcries":7636,"ĠFiscal":7637,"Ġattended":7638,"Ġsoftware":7639,"Ġacquainted":7640,"ĠWherefore":7641,"ĠBernard":7642,"ĠGrettir":7643,"Fr":7644,"uer":7645,"Ġinner":7646,"Ġlin":7647,"Ġsus":7648,"Ġuseless":7649,"Ġstupid":7650,"iable":7651,"Ġdeb":7652,"ĠDou":7653,"556":7654,"Ġrelative":7655,"Ġassert":7656,"ĠHighways":7657,"Can":7658,"aj":7659,"iforn":7660,"Ġchanges":7661,"Ġconcluded":7662,"ĠGold":7663,"Ġshows":7664,"Ġ70":7665,"Ġshouldn":7666,"Al":7667,"nat":7668,"Ġnevertheless":7669,"Ġfollows":7670,"Ġhaz":7671,"ĠNationality":7672,"ĠCanada":7673,"Ġpoll":7674,"omer":7675,"ĠMother":7676,"Ġrig":7677,"ta":7678,"Ġinex":7679,"ĠBro":7680,"Ġtherein":7681,"Ġtempor":7682,"ĠIndeed":7683,"Ġrighteousness":7684,"Ġconclusion":7685,"inity":7686,"Ġwages":7687,"Ġplag":7688,"ĠRussia":7689,"rade":7690,"irm":7691,"Ġugly":7692,"Ġ122":7693,"Ġforbid":7694,"Ġcraft":7695,"ura":7696,"Ġparted":7697,"200":7698,"Ġformats":7699,"Ġstruct":7700,"786":7701,"Ġstriking":7702,"...........................................":7703,"Ġindifferent":7704,"Ġdoctr":7705,"Ġwake":7706,"Ġoh":7707,"Ġexists":7708,"Ġchose":7709,"ĠVal":7710,"Ġmortal":7711,"Ġhed":7712,"ader":7713,"Ġassem":7714,"610":7715,"udge":7716,"640":7717,"inese":7718,"Ġwidow":7719,"bus":7720,"za":7721,"Ġfence":7722,"riot":7723,"Ġartist":7724,"Ġhastily":7725,"Ġeaten":7726,"gra":7727,"kward":7728,"olation":7729,"Ġalarm":7730,"rue":7731,"Ġinfer":7732,"Ġcreation":7733,"Ġlan":7734,"ĠFA":7735,"Ġvon":7736,"Ġaffected":7737,"Ġuttered":7738,"Ġfame":7739,"ĠSwed":7740,"Ġfeather":7741,"Ġstartled":7742,"Ġapproaching":7743,"hearted":7744,"Ġbon":7745,"ĠFront":7746,"524":7747,"upied":7748,"Ġflee":7749,"Ġdiamond":7750,"Ġsen":7751,"Ġdil":7752,"Ġneighbor":7753,"aid":7754,"Ġrat":7755,"Ġperpet":7756,"ĠArm":7757,"Ġdefend":7758,"Ġmidnight":7759,"Ġtrip":7760,"410":7761,"Ġelectronically":7762,"Ġinstrument":7763,"fund":7764,"ĠAustri":7765,"Ġcomposed":7766,"Ġswamp":7767,"bridge":7768,"Ġeffective":7769,"hoe":7770,"Ġobvious":7771,"ĠBaby":7772,"EMENT":7773,"Ġissue":7774,"ĠRussian":7775,"Ġchemicals":7776,"ĠNEGL":7777,"Ġwooden":7778,"Ġelement":7779,"etherlands":7780,"ĠMosiah":7781,"Ġmic":7782,"idents":7783,"Ġresumed":7784,"Ġtear":7785,"Ġdepos":7786,"eyed":7787,"Ġviews":7788,"Ġbrid":7789,"Ġprovin":7790,"Ġformerly":7791,"Ġbarn":7792,"icing":7793,"ĠMill":7794,"ĠPri":7795,"Ġdragged":7796,"Ġinterior":7797,"Ġmounted":7798,"Ġprotection":7799,"lines":7800,"Ġsees":7801,"ĠGil":7802,"310":7803,"824":7804,"Ġcontrast":7805,"four":7806,"Ġwww":7807,"ifying":7808,"Ġdisk":7809,"Ġguilty":7810,"Ġexperiment":7811,"car":7812,"Ġreadable":7813,"Ġdifficulties":7814,"Ġtribes":7815,"ĠEB":7816,"Ġlightly":7817,"Ġwarning":7818,"Ġdefense":7819,"Ġuncertain":7820,"Ġfatal":7821,"Ġunusual":7822,"Ġpow":7823,"Ġgif":7824,"ĠAdd":7825,"ares":7826,"ĠTR":7827,"Ġrecall":7828,"ĠUniversity":7829,"Ġgeneration":7830,"Ġmistaken":7831,"Ġsufficiently":7832,"vol":7833,"otte":7834,"ili":7835,"826":7836,"Ġwaist":7837,"Ġlargest":7838,"Ġinvol":7839,"bro":7840,"inction":7841,"oding":7842,"ĠRom":7843,"Ġmarch":7844,"END":7845,"Ġdamage":7846,"Ġmissed":7847,"Ġimproved":7848,"Ġ*****":7849,"Ġsilly":7850,"icar":7851,"Ġgiant":7852,"ĠHaving":7853,"Ġabst":7854,"uffs":7855,"Ġstudied":7856,"Ġpurposes":7857,"THER":7858,"Ġcrew":7859,"urday":7860,"pper":7861,"Ġcloser":7862,"Ġdiscont":7863,"Ġcombination":7864,"Ġwestern":7865,"Ġfury":7866,"ĠHal":7867,"Ġcliff":7868,"756":7869,"Ġreputation":7870,"Ġloves":7871,"Ġheavens":7872,"Ġfolks":7873,"Ġthither":7874,"ĠMir":7875,"Ġfears":7876,"754":7877,"Ġhumble":7878,"Ġlocations":7879,"ourable":7880,"Ġsisters":7881,"Ġreproach":7882,"Ġpier":7883,"Ġinev":7884,"Ġshell":7885,"Ġshared":7886,"Ġbrand":7887,"ixt":7888,"Ġsne":7889,"ĠBoston":7890,"Ġunw":7891,"Ġrope":7892,"Ġcompuls":7893,"mann":7894,"Ġimpulse":7895,"Ġentering":7896,"Ġcontinu":7897,"Ġpromoting":7898,"Ġmuttered":7899,"Ġrevealed":7900,"Ġpover":7901,"Ġreadily":7902,"AST":7903,"Ġlieu":7904,"LD":7905,"Ġton":7906,"asions":7907,"aph":7908,"Ġstrangers":7909,"Ġwandered":7910,"ĠWild":7911,"Ġmaxim":7912,"Ġmagic":7913,"Ġdemonstr":7914,"ĠCa":7915,"ĠLeon":7916,"Ġtroubles":7917,"100":7918,"cest":7919,"wl":7920,"Ġreports":7921,"At":7922,"throp":7923,"Ġinsult":7924,"ESCO":7925,"Ġannoy":7926,"Ġsteadily":7927,"Ġscru":7928,"lessness":7929,"ĠReg":7930,"Ġhumanity":7931,"Ġemployment":7932,"ĠBridge":7933,"Ġmajority":7934,"Ġwash":7935,"Ġstout":7936,"ĠMass":7937,"ĠBrand":7938,"Ġnearest":7939,"cco":7940,"ĠĠĠĠĠĠĠĠĠĠĠ":7941,"Ġpalm":7942,"Ġroyalties":7943,"Ġobservation":7944,"ĠGabriel":7945,"Ġrib":7946,"Ġwives":7947,"Ġomn":7948,"Ġpsych":7949,"ĠTurn":7950,"ĠSqu":7951,"aine":7952,"Ġcheap":7953,"ARD":7954,"Ġdriving":7955,"ĠHard":7956,"ĠStand":7957,".);":7958,"ĠElizab":7959,"Ġmanifest":7960,"IRECT":7961,"ĠFULL":7962,"Ġawa":7963,"Ġcottage":7964,"Ġastonished":7965,"NP":7966,"Ġstum":7967,"Ġwalks":7968,"Ġannually":7969,"Ġcalendar":7970,"Ġwidest":7971,"Ġfailure":7972,"ĠDISTR":7973,"lam":7974,"620":7975,"Ġsigned":7976,"Ġrevolution":7977,"Ġtypes":7978,"ĠRoyalty":7979,"ĠDAMAGES":7980,"Ġpreach":7981,"ogg":7982,"Ġpaved":7983,"Ġcorpor":7984,"ĠBelg":7985,"ĠPier":7986,"ĠLight":7987,"ousing":7988,"ĠIndians":7989,"Ġoperation":7990,"Ġhideous":7991,"Ġsate":7992,"Ġborne":7993,"ĠGre":7994,"Ġcontempl":7995,"Ġorganized":7996,"IBUT":7997,"Ġphilosophy":7998,"Look":7999,"yes":8000,"470":8001,"Ġages":8002,"Ġboast":8003,"ENSE":8004,"Ġgam":8005,"ĠEll":8006,"Ġaffect":8007,"Ġbedroom":8008,"Ġpatter":8009,"ĠUPU":8010,"ĠCaliforn":8011,"Ġexcess":8012,"Ġleaf":8013,"rene":8014,"Ġboundary":8015,"Ġpainful":8016,"Ġvanity":8017,"Ġpoverty":8018,"keeper":8019,"Ġslay":8020,"Ġpatience":8021,"Ġprominently":8022,"ĠStephen":8023,"Ye":8024,"ribly":8025,"ĠAnge":8026,"Ġawkward":8027,"Ġchiefly":8028,"Ġfunny":8029,"Ġconfirmed":8030,"Ġtoler":8031,"roll":8032,"rive":8033,"430":8034,"Ġfounded":8035,"oqu":8036,"Ġbuff":8037,"Ġcauses":8038,"Ġrealize":8039,"Ġmerc":8040,"Ġplatform":8041,"AVE":8042,"ĠSociety":8043,"ĠMarco":8044,"ĠMiddle":8045,"Ġflash":8046,"060":8047,"Ġjumped":8048,"Ġspecies":8049,"ĠDISTRIBUT":8050,"aux":8051,"Ġdeparture":8052,"Ġclerk":8053,"onde":8054,"Ġsolution":8055,"Ġrailway":8056,"ĠWARRANTY":8057,"ĠWARRANTIES":8058,"Ġmagnificent":8059,"Ġwolde":8060,"350":8061,"1986":8062,"Ġchairman":8063,"Ġprisoners":8064,"ĠEBOOK":8065,"Ġliv":8066,"ĠLIC":8067,"Ġindicate":8068,"Ġgenerous":8069,"cont":8070,"olf":8071,"Ġrecovered":8072,"Ġtransfer":8073,"force":8074,")(":8075,"gic":8076,"Ġincred":8077,"Ġeffects":8078,"ĠUNESCO":8079,"Ġcrowded":8080,"By":8081,"ĠJul":8082,"Ġtransl":8083,"boy":8084,"Ġsector":8085,"ĠOOF":8086,"Ġability":8087,"Ġchap":8088,"Ġtrace":8089,"Ġexamined":8090,"ĠLICENSE":8091,"vals":8092,"Ġfors":8093,"Ġeveryone":8094,"ĠAlthough":8095,"Ġdecision":8096,"Ġbuildings":8097,"Ġbalance":8098,"ĠSaturday":8099,"Ġunfortunate":8100,"Ġbade":8101,"Ġpup":8102,"Ġling":8103,"Ġ112":8104,"ette":8105,"gend":8106,"ailing":8107,"Ġminor":8108,"Ġproblems":8109,"Ġmanufacture":8110,"Ġspell":8111,"bye":8112,"ĠVanilla":8113,"onymous":8114,"Un":8115,"iot":8116,"Ġdischar":8117,"ĠSaid":8118,"Ġpoetry":8119,"rude":8120,"Ġcloth":8121,"ĠAaron":8122,"irs":8123,"illing":8124,"Ġneat":8125,"Ġestate":8126,"Ġinvited":8127,"Ġetc":8128,"burgh":8129,"ĠRoderick":8130,"Ġtick":8131,"Ġstol":8132,"ola":8133,"Ġflushed":8134,"ensed":8135,"724":8136,"ĠDonations":8137,"Ġvictory":8138,"ino":8139,"Ġcash":8140,"ĠITU":8141,"rae":8142,"Ġupward":8143,"ĠNetherlands":8144,"Ġtextiles":8145,"ĠICAO":8146,"ĠODA":8147,"726":8148,"Ġdetermine":8149,"Ġstirred":8150,"ĠNevertheless":8151,"Ġdesperate":8152,"ĠLIAB":8153,"Ġrendered":8154,"ĠBREACH":8155,"Ġvivid":8156,"Ġshy":8157,"Ġschal":8158,"Ġglow":8159,"Ġlawyer":8160,"IBILITY":8161,"Ġdisclaimer":8162,"put":8163,"ĠCra":8164,"Ġcometh":8165,"Ġsubm":8166,"note":8167,"Ġagreeable":8168,"Ġopportunities":8169,"Ġhunting":8170,"Ġaccomplished":8171,"Ġcy":8172,"Ġpond":8173,"Ġseas":8174,"Ġprohib":8175,"Ġgracious":8176,"reland":8177,"Ġ118":8178,"ĠPo":8179,"ulp":8180,"Ġclam":8181,"Ġeastern":8182,"Ġcolored":8183,"Ġbund":8184,"ĠPass":8185,"elia":8186,"Ġincome":8187,"ĠPrime":8188,"Ġenterpr":8189,"Ġmock":8190,"Ġeternal":8191,"Ġrela":8192,"ĠPlease":8193,"Ġ2001":8194,"ĠAbraham":8195,"Ġhosts":8196,"ĠGreece":8197,"bbing":8198,"Plain":8199,"rone":8200,"Ġdressing":8201,"Ġencoura":8202,"Ġattempted":8203,"Ġdeserted":8204,"Ġprophet":8205,"ancholy":8206,"480":8207,"630":8208,"Ġtrump":8209,"Ġattribut":8210,"Ġfinish":8211,"Ġpolite":8212,"Ġdeny":8213,"Ġresc":8214,"Ġstrongly":8215,"ĠTerms":8216,"ĠWinter":8217,"Ġcommunication":8218,"Perhaps":8219,"Im":8220,"formation":8221,"hum":8222,"ĠChinese":8223,"Ġsongs":8224,"faced":8225,"Ġwire":8226,"380":8227,"Ġcharged":8228,"Ġinsist":8229,"Ġcontrad":8230,"Ġidle":8231,"++++++++++++++++":8232,"Ġcalculated":8233,"mat":8234,"ĠIBRD":8235,"370":8236,"Ġdeclare":8237,"Ġcovenant":8238,"Never":8239,"Ġwing":8240,"lets":8241,"Ġbrick":8242,"Ġdeeper":8243,"vin":8244,"ĠWall":8245,"ĠDesp":8246,"ĠAGREE":8247,"QU":8248,"gal":8249,"ĠApp":8250,"ĠSouthern":8251,"ĠWal":8252,"Ġknocked":8253,"ĠArt":8254,"cheon":8255,"Ġrespectable":8256,"Ġvictim":8257,"ĠRedistribut":8258,"hetic":8259,"Ġbi":8260,"engers":8261,"atus":8262,"ĠHes":8263,"Ġrude":8264,"Ġslip":8265,"Ġinformed":8266,"ĠWork":8267,"ĠNed":8268,"acon":8269,"Ġremote":8270,"Ġwherein":8271,"Ġassumed":8272,"Ġerrors":8273,"Ġdegrees":8274,"Ġcandle":8275,"Ġguns":8276,"Ġash":8277,"olk":8278,"Ġchamp":8279,"Ġdisciples":8280,"ym":8281,"Ġhaunt":8282,"oof":8283,"ĠBranches":8284,"420":8285,"119":8286,"Ġloft":8287,"Ġnotion":8288,"ilus":8289,"680":8290,"izard":8291,"Ġtrunk":8292,"Ġtide":8293,"ĠTw":8294,"Ġult":8295,"Ġwithdra":8296,"Ġstuck":8297,"Ġconvey":8298,"TO":8299,"gthen":8300,"enes":8301,"Ġastonishment":8302,"ĠTem":8303,"Ġrays":8304,"Ġunion":8305,"159":8306,"Ġestim":8307,"quisite":8308,"ĠElizabeth":8309,"yr":8310,"zil":8311,"Ġwearing":8312,"Ġpassenger":8313,"SR":8314,"Ġowed":8315,"sey":8316,"rived":8317,"---":8318,"ĠMove":8319,"Ġjump":8320,"Ġoffers":8321,"Ġ1980":8322,"Ġthirst":8323,"Ġsuspected":8324,"Ġpuzzled":8325,"ĠRoger":8326,"FTU":8327,"Ġplants":8328,"aval":8329,"Ġvanished":8330,"Ġabruptly":8331,"asm":8332,"Ġpositive":8333,"Ġtreasure":8334,"Ġinheritance":8335,"craft":8336,"Ġcrept":8337,"Ġhunger":8338,"Ġnavig":8339,"Ġbuck":8340,"Ġsubstance":8341,"ĠSTART":8342,"300":8343,"0148":8344,"ĠHill":8345,"ĠWMO":8346,"ĠRem":8347,"Ġchim":8348,"Ġcontains":8349,"Ġmelancholy":8350,"Ġcitizens":8351,"600":8352,"bi":8353,"Ġcable":8354,"Ġconfused":8355,"Ġenthusias":8356,"des":8357,"rud":8358,"ĠElf":8359,"oso":8360,"Ġcharges":8361,"Ġinsp":8362,"Ġinvolved":8363,"coat":8364,"Ġecho":8365,"Ġshepher":8366,"Ġupstairs":8367,"4599":8368,"Ġram":8369,"icted":8370,"Ġstudents":8371,"Ġrepeat":8372,"Ġlately":8373,"ĠFAO":8374,"ĠEv":8375,"Ġalike":8376,"Ġelection":8377,"box":8378,"Ġcommerce":8379,"Ġbeach":8380,"Ġvul":8381,"Ġeasier":8382,"Ġhastened":8383,"Ġdescribe":8384,"Ġsway":8385,"Ġmai":8386,"Ġshortly":8387,"Ġcolumn":8388,"Ġgarments":8389,"Ġtools":8390,"Ġantic":8391,"--(":8392,"Ġadvert":8393,"Ġreview":8394,"Ġscheme":8395,"Ġ131":8396,"Ġroar":8397,"Ġspear":8398,"ASE":8399,"Ġreflection":8400,"Ġreduced":8401,"crow":8402,"isk":8403,"Ġsmart":8404,"Ġpenet":8405,"Ġol":8406,"Ġcub":8407,"ĠHann":8408,"Ġcoach":8409,"ĠPeace":8410,"Ġnarr":8411,"ĠHenchard":8412,"CP":8413,"Ġdus":8414,"ĠVery":8415,"Ġthyself":8416,"AND":8417,"ĠClara":8418,"ĠMcTe":8419,"400":8420,"Ġpil":8421,"Ġpine":8422,"rof":8423,"raction":8424,"Ġcommission":8425,"ĠAsia":8426,"Ġelectric":8427,"Ġcleared":8428,"awn":8429,"Ġpool":8430,"iche":8431,"abinet":8432,"Ġtraining":8433,"Ġrelated":8434,"bacco":8435,"ĠTrina":8436,"ĠThorpe":8437,"Ġdisag":8438,"Ġmaybe":8439,"Ġacted":8440,"ĠNeither":8441,"Ġperformance":8442,"Ġpotat":8443,"Ġmillions":8444,"ĠVer":8445,"Ġretired":8446,"Ġguest":8447,"ĠMission":8448,"ĠBarney":8449,"Ġsecretary":8450,"only":8451,"ĠLor":8452,"Ġdefence":8453,"ĠMoreover":8454,"Ġconfirm":8455,"ĠBabylon":8456,"Ġcompulsory":8457,"ĠCalifornia":8458,"includ":8459,"Ġbath":8460,"Ġgig":8461,"320":8462,"ĠEastern":8463,"ĠON":8464,"Ġconcent":8465,"Ġdoubtless":8466,"master":8467,"encies":8468,"Ġexplo":8469,"Ġutmost":8470,"Ġsenses":8471,"Ġiniquity":8472,"itute":8473,"ĠSop":8474,"Ġshed":8475,"ĠNem":8476,"Ġpercent":8477,"Ġencl":8478,"Ġseeking":8479,"Ġinterview":8480,"Ġpermit":8481,"Ġrede":8482,"ĠHu":8483,"akened":8484,"Ġdepths":8485,"official":8486,"aire":8487,"acious":8488,"ĠIreland":8489,"ĠSay":8490,"ĠFer":8491,"469":8492,"Ġrivers":8493,"bor":8494,"ĠIV":8495,"Ġconceal":8496,"Ġclimbed":8497,"Ġmixt":8498,"Ġsust":8499,"ĠMaria":8500,"Ġavailability":8501,"Ġfrancs":8502,"oons":8503,"Ġsensible":8504,"Ġconviction":8505,"ĠINTERPOL":8506,"Ġappearing":8507,"Ġdetect":8508,"ĠHelen":8509,"Ġtabern":8510,"ĠKen":8511,"ultan":8512,"Ġdisposed":8513,"070":8514,"Ġovercome":8515,"Ġsaddle":8516,"ĠMcTeague":8517,"ST":8518,"Ġmate":8519,"omfort":8520,"Ġwhither":8521,"ĠPan":8522,"Ġyourselves":8523,"Ġcompar":8524,"Ġscale":8525,"Ġoccasions":8526,"Ġrespond":8527,"haw":8528,"Ġtobacco":8529,"ĠILO":8530,"Ġwashed":8531,"Ġleis":8532,"Ġswear":8533,"ĠMaur":8534,"Ġliterary":8535,"ĠPublic":8536,"Ġprejud":8537,"ĠKor":8538,"Ġfarmer":8539,"Ġsilently":8540,"Ġinval":8541,"ĠGovern":8542,"Ġdisturbed":8543,"Ġrele":8544,"ĠBal":8545,"ĠBoy":8546,"980":8547,"Ġexquisite":8548,"ĠDW":8549,"ĠIsa":8550,"Ġsket":8551,"Ġenthusiasm":8552,"foot":8553,"his":8554,"Ġwag":8555,"ĠNW":8556,"ĠRiver":8557,"Ġindirect":8558,"Ġsymb":8559,"Ġdecor":8560,"Ġprotest":8561,"Ġhoney":8562,"Ġthres":8563,"ĠSU":8564,"ĠBY":8565,"ĠNiger":8566,"Ġflow":8567,"Ġcounty":8568,"Ġpossibility":8569,"Ġdispute":8570,"RS":8571,"TS":8572,"Ġ128":8573,"rily":8574,"Ġjaw":8575,"Ġdimin":8576,"========":8577,"ĠHurst":8578,"ander":8579,"ĠLaman":8580,"ĠLadd":8581,"Ġequival":8582,"Ġstrain":8583,"AF":8584,"stro":8585,"ĠDer":8586,"laced":8587,"Ġknee":8588,"ixter":8589,"ĠMajesty":8590,"imony":8591,"ĠSur":8592,"ĠCivil":8593,"elly":8594,"Ġamused":8595,"ends":8596,"Ġproperly":8597,"asper":8598,"ĠTen":8599,"ĠMark":8600,"abled":8601,"Ġstarting":8602,"Ġtotaling":8603,"Ġswiftly":8604,"ĠAccord":8605,"bbed":8606,"ĠBre":8607,"ĠGar":8608,"Ġgazing":8609,"Ġsatell":8610,"ĠMovement":8611,"lock":8612,"itating":8613,"Ġapt":8614,"Ġnest":8615,"Ġbeating":8616,"ĠEarth":8617,"Ġroot":8618,"Ġscarlet":8619,"mir":8620,"vo":8621,"Ġborrow":8622,"Ġcunning":8623,"Ġfaced":8624,"Ġelsewhere":8625,"Ġanticip":8626,"Ġbatt":8627,"Ġdirty":8628,"ican":8629,"ĠFour":8630,"Ġshirt":8631,"elf":8632,"Ġvoid":8633,"Ġmaintain":8634,"Bec":8635,"PL":8636,"aign":8637,"Ġtran":8638,"Ġancest":8639,"229":8640,"Ġbride":8641,"Ġspoil":8642,"ĠJudge":8643,"ĠAnnixter":8644,"Ġmedicine":8645,"rical":8646,"Ġunm":8647,"9031":8648,"Ġcurse":8649,"Ġdivision":8650,"Ġpolicy":8651,"Ġhorizont":8652,"ĠDWT":8653,"aning":8654,"Ġinit":8655,"idly":8656,"ĠHung":8657,"Ġimposed":8658,"Ġmasters":8659,"Ġdreamed":8660,"FOR":8661,"Ġbasket":8662,"Ġvisitor":8663,"Ġmanufacturing":8664,"uine":8665,"ete":8666,"Ġdeed":8667,"range":8668,"Ġconsid":8669,"Ġcourts":8670,"Ġelements":8671,"Because":8672,"Ġped":8673,"6261":8674,"Ġleather":8675,"Ġunlike":8676,"Ġdistinction":8677,"Ġmarble":8678,"Ġdetail":8679,"Ġdisputes":8680,"leness":8681,"pled":8682,"Ġcrushed":8683,"Ġreturns":8684,"Ġfleet":8685,"ctic":8686,"ifies":8687,"Ġbrut":8688,"Ġvehic":8689,"Ġerror":8690,"Ġmarks":8691,"Ġmoonlight":8692,"Ch":8693,"onies":8694,"Ġcode":8695,"utter":8696,"amin":8697,"ĠPoor":8698,"ĠFull":8699,"Ġunicameral":8700,"Ġraising":8701,"Ġmining":8702,"Ġmodified":8703,"Ġfruits":8704,"ĠConsulate":8705,"Mar":8706,"nie":8707,"Ġclaimed":8708,"Ġdaz":8709,"alty":8710,"rams":8711,"Ġdeeds":8712,"outhe":8713,"ĠUnt":8714,"Ġ1900":8715,"Ġexperienced":8716,"ĠHurstwood":8717,"ĠBas":8718,"istics":8719,"ogue":8720,"angle":8721,"Ġ1985":8722,"Ġvert":8723,"Ġcards":8724,"stein":8725,"Ġprecisely":8726,"Ġmoreover":8727,"Ġextensive":8728,"withstanding":8729,"ĠMorel":8730,"Ġinterpre":8731,"xx":8732,"ĠSil":8733,"Ġharmless":8734,"suff":8735,"Ġfolly":8736,"ĠSab":8737,"Ġjack":8738,"Ġperple":8739,"Ġbushes":8740,"axon":8741,"ĠTerritorial":8742,"ao":8743,"adel":8744,"ĠLion":8745,"750":8746,"why":8747,"ĠEli":8748,"ĠJean":8749,"Ġanch":8750,"Ġperil":8751,"Ġturns":8752,"Ġwanting":8753,"IND":8754,"Ġengagement":8755,"Ġnerves":8756,"Ġdismiss":8757,"Ġbol":8758,"Ġbeer":8759,"udes":8760,"9042":8761,"Ġgoodness":8762,"Ġincon":8763,"Ġlimit":8764,"jah":8765,"uty":8766,"Ġresol":8767,"Ġfairy":8768,"Ġfirmly":8769,"Ġessential":8770,"Ġporch":8771,"ĠBrazil":8772,"Ġgrateful":8773,"Ġnewspaper":8774,"uish":8775,"Ġmour":8776,"seen":8777,"quet":8778,"Ġchallen":8779,"ĠKore":8780,"Ġmeasures":8781,"._":8782,"bby":8783,"onse":8784,"Ġstated":8785,"Ġconfident":8786,"Ġdecide":8787,"Ġcompleted":8788,"Ġaddresses":8789,"hol":8790,"water":8791,"Ġtables":8792,"Ġjoke":8793,"Ġrefuge":8794,"Ġautumn":8795,"pen":8796,"Ġnurs":8797,"ĠBold":8798,"ĠDam":8799,"Ġmovements":8800,"ĠMartin":8801,"January":8802,"oty":8803,"Ġcompared":8804,"Ġsmote":8805,"ĠAssoci":8806,"racted":8807,"Ġopinions":8808,"One":8809,"Ġpian":8810,"Ġgru":8811,"Ġnois":8812,"ĠKat":8813,"Ġbadly":8814,"Ġcharacteristic":8815,"Ġcircumstance":8816,"Ġfurnished":8817,"!)":8818,"Ġheels":8819,"Ġshew":8820,"istry":8821,"ummer":8822,"ĠAndrew":8823,"Ġadmire":8824,"Ġruined":8825,"Ġhyd":8826,"ĠFinally":8827,"Ġmingled":8828,"CS":8829,"ĠCat":8830,"ĠGent":8831,"3145":8832,"3861":8833,"Ġmankind":8834,"Ġincom":8835,"kerchief":8836,"Ġfid":8837,"ĠWOR":8838,"arecrow":8839,"ICE":8840,"Ġmaintained":8841,"Ġment":8842,"ima":8843,"Ġchur":8844,"Ġvolcan":8845,"CTAD":8846,"Ġrecognize":8847,"ĠThan":8848,"verted":8849,"arded":8850,"apa":8851,"ĠMarian":8852,"Ġventure":8853,"ĠIFAD":8854,"nant":8855,"inor":8856,"ĠBart":8857,"6573":8858,"Ġshif":8859,"ĠDig":8860,"ĠĠĠĠĠĠĠĠĠĠĠĠ":8861,"ĠMean":8862,"Ġcoward":8863,"zer":8864,"oni":8865,"ĠLut":8866,"Ġ300":8867,"339":8868,"Ġresolution":8869,"Ġtaxes":8870,"rust":8871,"Ġgown":8872,"ĠTex":8873,"3102":8874,"Ġboots":8875,"ĠUNCTAD":8876,"Ġbreathing":8877,"Ġindividuals":8878,"Ġdisappointment":8879,"Ġprophets":8880,"Ġmourn":8881,"ĠGOD":8882,"Ġwandering":8883,"IA":8884,"yde":8885,"Ġly":8886,"Ġlament":8887,"Ġnaught":8888,"ĠAT":8889,"ĠGert":8890,"Ġsubsequ":8891,"Ġ1995":8892,"actory":8893,"Ġruns":8894,"Ġpointing":8895,"Ġviewed":8896,"ĠBaron":8897,"Ġingen":8898,"hor":8899,"Ġmant":8900,"Ġthrill":8901,"Ġ177":8902,"irts":8903,"thur":8904,"ulations":8905,"Ġupright":8906,"ĠProv":8907,"Ġblows":8908,"Ġphone":8909,"Ġbenefit":8910,"Ġlunch":8911,"Ġange":8912,"ifully":8913,"Ġmanage":8914,"Ġoft":8915,"Ġnic":8916,"ĠSue":8917,"4815":8918,"9508":8919,"ĠTob":8920,"Ġteleg":8921,"Ġdisturb":8922,"Ġtales":8923,"Ġours":8924,"Ġsixty":8925,"Ġeleg":8926,"Ġbench":8927,"ĠMuslim":8928,"Ġgifts":8929,"ĠLaddie":8930,"rus":8931,"Ġbind":8932,"Ġbark":8933,"ayed":8934,"ĠRaven":8935,"Ġlikewise":8936,"Ġgenuine":8937,"ĠLanguages":8938,"ĠElfride":8939,"Ġiv":8940,"iddy":8941,"ĠEarl":8942,"Ġroses":8943,"Ġperish":8944,"Ġblock":8945,"Ġtriump":8946,"guer":8947,"Ġquantity":8948,"AK":8949,"Ġheap":8950,"Ġreject":8951,"Ġstable":8952,"Ġtemp":8953,"Ġselfish":8954,"Tis":8955,"even":8956,"ĠIDA":8957,"vet":8958,"Ġthread":8959,"0008":8960,"Ġunim":8961,"Ġrecover":8962,"Ġsafely":8963,"Ġwhan":8964,"rol":8965,"eman":8966,"6562":8967,"osal":8968,"Ġ841":8969,"Ġthrong":8970,"sole":8971,"gging":8972,"ĠLev":8973,"Ġprize":8974,"Ġguessed":8975,"Ġsatellite":8976,"9199":8977,"Ġfoundation":8978,"Ġhatred":8979,"ĠYea":8980,"ĠXXX":8981,"Ġmak":8982,"ĠFort":8983,"Ġdelic":8984,"Ġsignal":8985,"Ġvegetables":8986,"ĠReligions":8987,"Ġequivalent":8988,"apped":8989,"reed":8990,"Ġpound":8991,"Ġvoy":8992,"ĠHannah":8993,"Just":8994,"cus":8995,"Ġcounted":8996,"Ġregions":8997,"Ġsummon":8998,"has":8999,"ati":9000,"Ġ121":9001,"Ġsoci":9002,"Ġard":9003,"Ġconstruct":9004,"Ġabsent":9005,"Ġslightest":9006,"ĠBritain":9007,"Ġhitherto":9008,"ĠJonathan":9009,"800":9010,"0811":9011,"Ġplates":9012,"Ġgrandfather":9013,"Ġnonsense":9014,"Ġwept":9015,"9895":9016,"ĠLeaders":9017,"Ġexamination":9018,"Ġdenied":9019,"works":9020,"ĠIFC":9021,"ĠSocialist":9022,"Ġhandkerchief":9023,"Ġestablishment":9024,"ws":9025,"Ġgrasp":9026,"Ġqualities":9027,"ras":9028,"inth":9029,"Ġsque":9030,"Ġoak":9031,"Ġsober":9032,"Ġ69":9033,"ĠElinor":9034,"Ġexception":9035,"Ġdocument":9036,"amation":9037,"ĠEV":9038,"iverse":9039,"Ġdisappointed":9040,"Ġbewild":9041,"Ġinch":9042,"Ġscreen":9043,"ĠAnna":9044,"Ġdisease":9045,"Ġsul":9046,"Ġ1890":9047,"Ġscore":9048,"Ġfinds":9049,"Ġtrembled":9050,"Ġapprehens":9051,"Ġtabernacle":9052,"bes":9053,"Ġsorts":9054,"Ġexert":9055,"agle":9056,"Ġarrow":9057,"Ġraw":9058,"ĠNext":9059,"Ġhabits":9060,"Ġ----":9061,"rer":9062,"Ġvest":9063,"Ġwhereas":9064,"Ġswim":9065,"Ġsincere":9066,"Ġfires":9067,"Ġheark":9068,"Ġwhirl":9069,"ĠRay":9070,"Ġthrowing":9071,"cribed":9072,"Ġmagistr":9073,"Ġtouching":9074,"Ġprofessional":9075,"Ġrevenge":9076,"Ind":9077,"ĠFR":9078,"Ġprobable":9079,"Ġexclusive":9080,"ĠLamanites":9081,"ACT":9082,"phe":9083,"oto":9084,"lying":9085,"Ġinches":9086,"Ġstring":9087,"Ġmode":9088,"Ġfearful":9089,"Ġpursuit":9090,"\".":9091,"Ġintimate":9092,"ĠScar":9093,"Ġcivilization":9094,"Ġstroke":9095,"ĠLanguage":9096,"tes":9097,"Ġsi":9098,"Ġfaded":9099,"ĠHaw":9100,"Ġrice":9101,"0231":9102,"129":9103,"Ġbush":9104,"azar":9105,"headed":9106,"Ġchairs":9107,"Ġhouseholds":9108,"Ġindifference":9109,"ĠScotland":9110,"Ġphotograph":9111,"Ġhorizontal":9112,"Ġforto":9113,"Ġrud":9114,"Ġarrows":9115,"Ġcontents":9116,"Ġhappens":9117,"Ġprofits":9118,"Ġcorners":9119,"Ġgravely":9120,"ĠGovernor":9121,"Ġze":9122,"Ġtel":9123,"Ġowing":9124,"Ġcodes":9125,"stock":9126,"Ġsear":9127,"970":9128,"180":9129,"ĠNorway":9130,"Ġofferings":9131,"Ġawe":9132,"eding":9133,"ĠCopyright":9134,"ĠFitz":9135,"0161":9136,"Ġexecut":9137,"ĠInstead":9138,"Ġlinen":9139,"Ġtones":9140,"Ġnormal":9141,"Ġwhip":9142,"0841":9143,"Ġroots":9144,"Ġrecently":9145,"Ġslew":9146,"ATT":9147,"Ġmedical":9148,"Ġstudent":9149,"Ġcryst":9150,"Ġabandoned":9151,"ĠFrancisco":9152,"Ġeggs":9153,"uk":9154,"oral":9155,"Ġdre":9156,"icy":9157,"ĠBon":9158,"ĠWILL":9159,"Ġprecip":9160,"ensity":9161,"Ġperfor":9162,"Ġartific":9163,"Ġdisposition":9164,"ĠIMO":9165,"Ġmixture":9166,"Ġwist":9167,"ĠSi":9168,"0042":9169,"ĠScarecrow":9170,"Ġcrazy":9171,"Ġclergy":9172,"Ġacknowled":9173,"Ġplague":9174,"\";":9175,"Ġbud":9176,"Ġfitted":9177,"ĠNavy":9178,"Ġlimbs":9179,"Ġacquired":9180,"Ġintelligent":9181,"Ġneighbourhood":9182,"ĠHAVE":9183,"ĠDown":9184,"Ġentit":9185,"ĠArthur":9186,"Ġrestored":9187,"Ġarrangement":9188,"occupied":9189,"Ġsink":9190,"Ġbust":9191,"orable":9192,"ĠIOC":9193,"Ġ1952":9194,"ĠWITH":9195,"9737":9196,"Ġdesolate":9197,"Ġimpressed":9198,".'\"":9199,"ippi":9200,"Ġdrugs":9201,"God":9202,"Ġtomorrow":9203,"Ġherte":9204,"ĠCro":9205,"Ġpreserved":9206,"Ġrecalled":9207,"Ġappropri":9208,"Ġhorizon":9209,"ĠĠĠĠĠĠĠĠĠĠĠĠĠĠ":9210,"ibilities":9211,"Ġstrangely":9212,"bell":9213,"Ġful":9214,"Ġ178":9215,"ĠSTR":9216,"ĠMiles":9217,"ĠRes":9218,"Ġimplied":9219,"Ġmarve":9220,"Ġinstit":9221,"Ġcenturies":9222,"gen":9223,"Ġphen":9224,"ĠCreat":9225,"ĠFed":9226,"opher":9227,"4265":9228,"Ġromantic":9229,"andal":9230,"Ġhandle":9231,"utenant":9232,"swood":9233,"Le":9234,"oping":9235,"Ġexposed":9236,"OB":9237,"Ġhut":9238,"Ġstom":9239,"Ġwheels":9240,"Ġ1905":9241,"ĠSoon":9242,"Ġquarrel":9243,"ĠElections":9244,"ĠIrish":9245,"Ġbat":9246,"Ġfount":9247,"ĠJan":9248,"ĠPhilist":9249,"Ġbanks":9250,"Ġbullet":9251,"Ġbasis":9252,"Ġgathering":9253,"itzer":9254,"uz":9255,"0575":9256,"4465":9257,"ords":9258,"Ġharsh":9259,"Ġoperations":9260,"Ġorganization":9261,"Ġrisen":9262,"ĠBoldwood":9263,"ĠDevelop":9264,"Ġcommands":9265,"Ġpitch":9266,"ĠContin":9267,"Ġattracted":9268,"Ġambition":9269,"ĠRavenswood":9270,"vity":9271,"iring":9272,"Ġkid":9273,"ĠGra":9274,"Ġsolic":9275,"Ġprayed":9276,"ĠSenate":9277,"Ġselected":9278,"Ġbreeze":9279,"Ġtid":9280,"Ġmorrow":9281,"Ġnigh":9282,"alls":9283,"Ġslender":9284,"Ġ1984":9285,"Ġdistinctly":9286,"Ġpolitics":9287,"Ġstructure":9288,"4517":9289,"259":9290,"never":9291,"Ġencourage":9292,"Ġacting":9293,"Ġrebell":9294,"Ġamusement":9295,"sch":9296,"Ġpile":9297,"geon":9298,"9295":9299,"Ġchuck":9300,"ĠGeorg":9301,"Ġobjection":9302,"ĠPenrod":9303,"Ġdoctrine":9304,"Ġstag":9305,"Ġstole":9306,"ĠMonsieur":9307,"Ġbackward":9308,"ĠĠĠĠĠĠĠĠĠĠĠĠĠ":9309,"Ġ1996":9310,"Ġwaterways":9311,"Ġjudges":9312,"ĠParliament":9313,"Ġglasses":9314,"Ġsmoking":9315,"pic":9316,"Ġdar":9317,"usions":9318,"ĠDavy":9319,"Ġflashed":9320,"0968":9321,"Ġrelieved":9322,"ĠNAM":9323,"forth":9324,"guerite":9325,"ĠPR":9326,"Ġattent":9327,"Ġconflict":9328,"Ġgrounds":9329,"Ġsalvation":9330,"Ġphilosopher":9331,"Ġexhausted":9332,"OP":9333,"lay":9334,"Ġfired":9335,"Ġworry":9336,"ante":9337,"obody":9338,"Ġschools":9339,"Ġpockets":9340,"Ġwickedness":9341,"Ġweapon":9342,"aved":9343,"ĠCed":9344,"Ġimages":9345,"reek":9346,"Ġhasn":9347,"Ġmarvel":9348,"bey":9349,"ITN":9350,"ĠArchie":9351,"Ġsupported":9352,"Ġhomes":9353,"iop":9354,"ĠAR":9355,"ĠCould":9356,"4728":9357,"ĠEust":9358,"angs":9359,"Ġcollar":9360,"Tell":9361,"ration":9362,"Ġanyway":9363,"150":9364,"1541":9365,"Ġreserv":9366,"Ġlesson":9367,"Ġfalls":9368,"Ġdependent":9369,"Ġnegro":9370,"Ġadministration":9371,"Ġpreferred":9372,"Ġreminded":9373,"Ġsovereign":9374,"Comm":9375,"uced":9376,"Ġyer":9377,"Ġstored":9378,"Ġunple":9379,"Ġresent":9380,"Ġconsumption":9381,"ĠAdv":9382,"Ġperceive":9383,"Ġblew":9384,"Ġdiplomatic":9385,"ado":9386,"Ġconvert":9387,"0255":9388,"plural":9389,"Ġchapter":9390,"Ġreference":9391,"Ġhumor":9392,"Ġcommandments":9393,"Ġstatements":9394,"Ġstolen":9395,"ghan":9396,"Ġcir":9397,"Ġlosing":9398,"ession":9399,"ighty":9400,"Ġkeeps":9401,"ript":9402,"ĠMap":9403,"ĠGive":9404,"cked":9405,"istence":9406,"ĠRa":9407,"ĠAmmon":9408,"ĠMerchant":9409,"Ġrejoice":9410,"6165":9411,"Ġbrings":9412,"Ġformal":9413,"Ġobed":9414,"Ġcondem":9415,"fortune":9416,"fa":9417,"hile":9418,"orus":9419,"Ġdivers":9420,"ĠHope":9421,"ĠPark":9422,"6278":9423,"889":9424,"aubon":9425,"Ġblast":9426,"Ġdwelling":9427,"Ġapplication":9428,"Ġmotionless":9429,"Ġseventy":9430,"Ġfascin":9431,"hire":9432,"omy":9433,"geance":9434,"Ġtram":9435,"............................................":9436,"ĠOtto":9437,"itect":9438,"ĠBible":9439,"arts":9440,"plete":9441,"Ġparish":9442,"Ġpotatoes":9443,"IAL":9444,"gain":9445,"9857":9446,"Ġoverw":9447,"Ġreluct":9448,"Ġrival":9449,"Ġpretend":9450,"ĠCommission":9451,"uminous":9452,"ĠSimon":9453,"Ġtribut":9454,"Ġdried":9455,"Ġappet":9456,"ĠMeanwhile":9457,"ca":9458,"ĠSP":9459,"Ġagony":9460,"179":9461,"Ġstomach":9462,"Ġcum":9463,"ĠSlo":9464,"Ġbegins":9465,"ĠYoung":9466,"Ġdirections":9467,"Ġaccepting":9468,"Ġ997":9469,"ĠVirginia":9470,"Inde":9471,"sell":9472,"ĠLo":9473,"Ġfeature":9474,"ĠSov":9475,"Ġinstitution":9476,"Ġarmies":9477,"Ġbeds":9478,"Ġremarks":9479,"Ġglimpse":9480,"Ġlivest":9481,"ki":9482,"oris":9483,"ilight":9484,"udi":9485,"ĠMississ":9486,"Ġconnect":9487,"Ġexpedition":9488,"rels":9489,"hab":9490,"Ġloyal":9491,"ĠAD":9492,"Ġsheet":9493,"kel":9494,"igrant":9495,"Ġcommenced":9496,"Ġprayers":9497,"Ġeducational":9498,"Ġsubstant":9499,"ĠCasaubon":9500,"Ġlou":9501,"Ġkick":9502,"3831":9503,"ĠDom":9504,"Ġmanager":9505,"Ġlend":9506,"Ġlegend":9507,"ĠYEAR":9508,"Ġdiscern":9509,"Ġcuriously":9510,"ĠProtest":9511,"ĠGertrude":9512,"ĠGray":9513,"Ġquiver":9514,"189":9515,"atherine":9516,"Ġcommunications":9517,"Ġresting":9518,"ĠMarg":9519,"ENCE":9520,"Ġ--------------------------------":9521,"Ġvital":9522,"ĠMarguerite":9523,"Ġfolded":9524,"Ġstretch":9525,"ĠTexas":9526,"ĠMississippi":9527,"Ġowe":9528,"ĠHast":9529,"Ġ1981":9530,"Ġequality":9531,"Ġaccordingly":9532,"IDO":9533,"Ġsuspend":9534,"Foot":9535,"iland":9536,"mony":9537,"eng":9538,"Ġdict":9539,"6731":9540,"inded":9541,"Ġadvers":9542,"Ġletting":9543,"Ġmodel":9544,"Ġsadly":9545,"Ġbeaten":9546,"pers":9547,"Ġtun":9548,"Ġpark":9549,"otions":9550,"ppose":9551,"Ġenqu":9552,"Ġwaved":9553,"Ġ1978":9554,"Ġfootstep":9555,"Ġindicated":9556,"ederation":9557,"Ġdisagree":9558,"Or":9559,"oid":9560,"Ġbrute":9561,"ĠAss":9562,"Ġmadam":9563,"ieth":9564,"Ġtore":9565,"ĠPhara":9566,"Ġ1982":9567,"ĠJeff":9568,"Ġterritorial":9569,"Ġromance":9570,"Ġhammer":9571,"Ġdamp":9572,"lla":9573,"Ġmurmur":9574,"Ġcigar":9575,"Ġfetch":9576,"Ġinquiry":9577,"Ġlur":9578,"Ġwrapped":9579,"See":9580,"Ġhiding":9581,"Ġbears":9582,"ĠHome":9583,"ĠDra":9584,"Ġanyhow":9585,"inkled":9586,"Ġhorrid":9587,"Ġlabore":9588,"Ġlegislative":9589,"Ġgrandmother":9590,"phas":9591,"Ġplunged":9592,"Ġpains":9593,"Ġ113":9594,"unken":9595,"Ġcrimin":9596,"Ġunclean":9597,"ĠCond":9598,"Ġseconds":9599,"ĠUNIDO":9600,"ĠMadam":9601,"Ġknights":9602,"Ġthreatened":9603,"two":9604,"Ġ103":9605,"Ġrelease":9606,"ĠCare":9607,"ensions":9608,"Ġrestless":9609,"Ġ1983":9610,"regular":9611,"Ġconsequences":9612,"ĠSoviet":9613,"inburgh":9614,"Ġwip":9615,"Ġbough":9616,"Ġdumb":9617,"Ġjoint":9618,"aging":9619,"Ġsport":9620,"bler":9621,"ĠArk":9622,"airy":9623,"Ġtransform":9624,"Ġjudged":9625,"Ġerrand":9626,"Ġlanguages":9627,"ĠArea":9628,"Ġgratitude":9629,"tw":9630,"ĠOx":9631,"Ġlanded":9632,"Ġtorment":9633,"Ġtourism":9634,"Ġmaximum":9635,"ĠPharaoh":9636,";\"":9637,"Miss":9638,"ede":9639,"Ġgames":9640,"ilation":9641,"ĠEmp":9642,"Ġafflict":9643,"Ġdetach":9644,"ĠSche":9645,"Ġportrait":9646,"ĠClayton":9647,"ali":9648,"ĠTha":9649,"Ġrevel":9650,"ĠPre":9651,"Ġ500":9652,"859":9653,"Ġlanding":9654,"Ġactions":9655,"Ġsunset":9656,"Ġresponsible":9657,"Ġtendency":9658,"Ġfrown":9659,"Ġinstruments":9660,"Ġsupplied":9661,"Ġeth":9662,"ĠNight":9663,"Ġprem":9664,"ĠKir":9665,"460":9666,"Ġawoke":9667,"Ġcorrid":9668,"itzerland":9669,"Ġlandsc":9670,"Ġchanging":9671,"Ġcutting":9672,"ĠSomething":9673,"ĠHa":9674,"Ġorn":9675,"ĠMarie":9676,"Ġdriver":9677,"Ġverse":9678,"Ġsensitive":9679,"Ġimmort":9680,"Ġlinked":9681,"glass":9682,"Footnote":9683,"Ġfain":9684,"Ġyonder":9685,"9858":9686,"order":9687,"219":9688,"maid":9689,"Ġtemperature":9690,"ĠRailroads":9691,"Ġangels":9692,"UM":9693,"ĠMond":9694,"Ġsale":9695,"ĠWoman":9696,"879":9697,"Ġclosing":9698,"Ġload":9699,"Ġtransm":9700,"ĠZeal":9701,"Ġlivestock":9702,"0001":9703,"Ġ1979":9704,"ĠTurkey":9705,"Ġabsorbed":9706,"Ġcert":9707,"ĠSurely":9708,"3553":9709,"ĠVI":9710,"Ġpasses":9711,"Ġtransp":9712,"Ġinterpret":9713,"ĠCharlotte":9714,"Ġsurvive":9715,"Ġchimney":9716,"iary":9717,"Ġbloss":9718,"Ġtraged":9719,"Ġinvis":9720,"Ġmodest":9721,"Ġmisfortune":9722,"Ġattacked":9723,"PT":9724,"cr":9725,"uated":9726,"hered":9727,"Ġfoe":9728,"ĠSever":9729,"Ġrot":9730,"oster":9731,"Ġjer":9732,"Ġfacing":9733,"4635":9734,"Ġdeadly":9735,"Ġplanned":9736,"Ġtremend":9737,"Ġprevented":9738,"Ġventured":9739,"Ġearnestly":9740,"Ġmit":9741,"ĠWIP":9742,"Ġtwilight":9743,"Ġcarpet":9744,"Ġbreathed":9745,"Ġtestimony":9746,"Ġmotive":9747,"lers":9748,"ĠTim":9749,"Ġrene":9750,"Ġareas":9751,"igen":9752,"Ġarist":9753,"Ġprud":9754,"Ġglit":9755,"Ġ1901":9756,"Ġmischief":9757,"Ġcampaign":9758,"Ġmainly":9759,"Ġdeceived":9760,"Ġvulgar":9761,"bet":9762,"uert":9763,"Ġ104":9764,"ĠME":9765,"opes":9766,"Ġdaylight":9767,"Ġattach":9768,"Ġveil":9769,"Ġfrightful":9770,"Ġteaching":9771,"Ġlantern":9772,"oubted":9773,"ĠTrans":9774,"ĠPoly":9775,"ĠGreg":9776,"osity":9777,"Ġ1895":9778,"Ġcharity":9779,"Ġbrains":9780,"Ġcollected":9781,"ĠCarter":9782,"ALL":9783,"Ġannual":9784,"Ġremainder":9785,"phant":9786,"Ġsupreme":9787,"ĠIsaac":9788,";--":9789,"ĠDO":9790,"Ġelections":9791,"Ġclimb":9792,"Ġmigrants":9793,"ĠSpecial":9794,"WN":9795,"lad":9796,"Ġcrop":9797,"third":9798,"Ġ(\"":9799,"Ġ1899":9800,"ERS":9801,"Ġexports":9802,".............................":9803,"Ġinevitable":9804,"bat":9805,"egr":9806,"Ġbeings":9807,"sters":9808,"Ġ1960":9809,"ĠCore":9810,"ĠEBook":9811,"Ġfacil":9812,"Ġconsumer":9813,"239":9814,"Ġinfring":9815,"Ġarts":9816,"Ġholds":9817,"Ġfastened":9818,"Nothing":9819,"Ġrevolver":9820,"Ġcelebrated":9821,"Ġridiculous":9822,"Ġinferior":9823,"ĠFederal":9824,"ĠWIPO":9825,"aan":9826,"ighted":9827,"ĠProdu":9828,"Ġflock":9829,"2845":9830,"Ġchances":9831,"Ġpersonality":9832,"Ġelev":9833,"Ġcrowds":9834,"Ġreferred":9835,"ĠDespite":9836,"ĠAssociation":9837,"Ġentitled":9838,"Ġlots":9839,"Ġetext":9840,"279":9841,"arson":9842,"Ġcompressed":9843,"Ġemphas":9844,"thel":9845,"Ġcareless":9846,"..........................":9847,"Ġward":9848,"Ġmam":9849,"ĠAuthor":9850,"ĠSom":9851,"Ġshrew":9852,"ospel":9853,"Ġ1898":9854,"Ġdecent":9855,"Ġfeeble":9856,"Ġmaintaining":9857,"ĠMcC":9858,"Ġexecution":9859,"Ġtoil":9860,"6465":9861,"Ġconfined":9862,"Ġillness":9863,"Ġspecim":9864,"................................................":9865,"Ġchurches":9866,"oration":9867,"Ġinward":9868,"ĠFogg":9869,"itional":9870,"ĠLORCS":9871,"Ġhackers":9872,"Ġempire":9873,"Ġindignation":9874,"Ġliquid":9875,"Ġinterpreted":9876,"ĠZealand":9877,"ĠDate":9878,"Ġunjust":9879,"Ġclut":9880,"ints":9881,"ĠLeban":9882,"Ġ1970":9883,"Ġresponse":9884,"Ġdisappear":9885,"txt":9886,"ouch":9887,"ashes":9888,"Ġjest":9889,"atson":9890,"Ġsearching":9891,"ĠSamuel":9892,"Ġbitterly":9893,"Ġissues":9894,"Ġfacility":9895,"Ġpiano":9896,"zib":9897,"ouched":9898,"Ġfest":9899,"ĠFra":9900,"Ġstrate":9901,"Ġneighbours":9902,"including":9903,"ĠKorea":9904,"Ġzeal":9905,"ĠDevelopment":9906,"sect":9907,"Ġpert":9908,"330":9909,"Ġapple":9910,"Ġlively":9911,"Ġgardens":9912,"Ġmachines":9913,"Ġbelonging":9914,"ĠAntonia":9915,"ĠPolice":9916,"Ġfanci":9917,"ĠMargaret":9918,"Ġ106":9919,"990":9920,"Ġalco":9921,"110":9922,"Ġwherefore":9923,"Ġplac":9924,"Ġprofessor":9925,"Ġheathen":9926,"Ġtomb":9927,"atha":9928,"ĠSalt":9929,"9992":9930,"ĠNa":9931,"Ġderive":9932,"piration":9933,"Ġfortunate":9934,"bra":9935,"past":9936,"whe":9937,"Ġsom":9938,"oped":9939,"6968":9940,"ĠAlger":9941,"Ġpropose":9942,"Ġeighteen":9943,"ĠEdinburgh":9944,"Ġsailor":9945,"Ġfant":9946,"Ġstre":9947,"ĠPC":9948,"quar":9949,"iae":9950,"izes":9951,"ucked":9952,"ĠĠĠĠĠĠĠĠĠĠĠĠĠĠĠĠĠĠ":9953,"Ġswords":9954,"Ġprovinces":9955,"Right":9956,"Ġfoul":9957,"Ġthief":9958,"Ġdealt":9959,"Ġ1894":9960,"Ġrav":9961,"Ġpersuaded":9962,"Ġcomprehend":9963,"Ġcondemned":9964,"AU":9965,"ga":9966,"ients":9967,"vial":9968,"ato":9969,"Ġ1904":9970,"ĠNorthern":9971,"Ġ1897":9972,"Ġ1893":9973,"Ġsecured":9974,"Ġ1889":9975,"Ġstrengthen":9976,"Ġarchitect":9977,"ĠWilson":9978,"Ġcurtain":9979,"ĠFAX":9980,"DS":9981,"uously":9982,"rection":9983,"ĠIsab":9984,"Ġ1880":9985,"Ġbelongs":9986,"Ġblessing":9987,"Ġshouting":9988,"Ġpall":9989,"Ġinvention":9990,"unction":9991,"ivities":9992,"ureau":9993,"Ġenv":9994,"Ġ1892":9995,"Ġaccompany":9996,"Ġfancied":9997,"Ġflatter":9998,"Ġtrained":9999,"Ġlowered":10000,"Ġprotested":10001,"Ġprograms":10002,"Ġphysician":10003,"ĠKaty":10004,"Ġwoe":10005,"Ġfug":10006,"Ġpy":10007,"ĠAch":10008,"Ġasc":10009,"amil":10010,"ĠNap":10011,"ĠNames":10012,"Ġdisgu":10013,"Ġmarched":10014,"iency":10015,"Ġencoun":10016,"Ġgloomy":10017,"Ġgratefully":10018,"Ġmechanical":10019,"ĠAustria":10020,"Ġwo":10021,"Ġfel":10022,"Ġrein":10023,"ĠCamp":10024,"ĠPAR":10025,"ĠWizard":10026,"allel":10027,"ĠLos":10028,"Ġspur":10029,"Ġeste":10030,"Ġwarned":10031,"ĠUSSR":10032,"sk":10033,"alo":10034,"Ġreigned":10035,"9947":10036,"ĠEle":10037,"Ġfarew":10038,"Ġimprison":10039,"Ġchildhood":10040,"Ġsym":10041,"ĠEverything":10042,"Ġobscure":10043,"ĠDis":10044,"umm":10045,"Ġuses":10046,"Ġapolog":10047,"Ġboats":10048,"Ġfunction":10049,"ĠHelaman":10050,"ĠCompany":10051,"spe":10052,"Ġfog":10053,"ĠTit":10054,"ĠHence":10055,"ĠCatherine":10056,"ĠNay":10057,"9492":10058,"Ġ1891":10059,"Ġhoist":10060,"Ġlaying":10061,"ĠSyria":10062,"Ġroughly":10063,"Ġvengeance":10064,"AEA":10065,"Ġprivilege":10066,"ĠHalf":10067,"Net":10068,"4765":10069,"ĠOTHER":10070,"Ġ596":10071,"irector":10072,"Ġstandards":10073,"ĠBeh":10074,"Ġfrost":10075,"ĠICJ":10076,"ĠEliza":10077,"Land":10078,"Qu":10079,"wright":10080,"Ġwreck":10081,"illes":10082,"ĠCape":10083,"4037":10084,"Ġintervals":10085,"Ġindef":10086,"ĠAmericans":10087,"Ġlocation":10088,"Ġroyalty":10089,"Ġdiscipl":10090,"Ġcomparison":10091,"vas":10092,"Ġtons":10093,"Ġdanced":10094,"Ġherd":10095,"Ġdegr":10096,"ĠDE":10097,"ĠDiv":10098,"139":10099,"Ġretorted":10100,"Ġsteal":10101,"Ġmerit":10102,"ĠGuard":10103,"Ġdetermination":10104,"Ġpromptly":10105,"Ġreckon":10106,"Ġtheatre":10107,"Ġfarewell":10108,"Ġumb":10109,"Ġstub":10110,"Ġsurre":10111,"Ġwidely":10112,"Ġpronounced":10113,"Ġgorge":10114,"ĠWis":10115,"ĠGulf":10116,"Ġprolong":10117,"Ġaroused":10118,"720":10119,"ĠUnless":10120,"Ġlovers":10121,"Ġanguish":10122,"Ġmasses":10123,"Ġwarrior":10124,"ademy":10125,"Ġbundle":10126,"Ġoverwhel":10127,".),":10128,"Ġshine":10129,"izz":10130,"Ġuncomfort":10131,"Ġcrossing":10132,"ĠSwitzerland":10133,"ĠOrganization":10134,"ĠDenmark":10135,"Ġcloak":10136,"ĠGilbert":10137,"801":10138,"ani":10139,"ĠCe":10140,"oler":10141,"Ġenabled":10142,"APH":10143,"Ġenjoyment":10144,"Ġleap":10145,"Ġshaken":10146,"Ġ79":10147,"Ġdownlo":10148,"Ġsweep":10149,"Ġtrusted":10150,"ĠFelix":10151,"ĠPortugal":10152,"Ġconsidering":10153,"Ġopt":10154,"itious":10155,"ĠIAEA":10156,"ĠLang":10157,"ĠUt":10158,"Ġelabor":10159,"Ġneedn":10160,"aneous":10161,"Ġ1976":10162,"Ġmirror":10163,"Ġalteration":10164,"Ġtossed":10165,"Ġhalted":10166,"Ġlane":10167,"Ġgy":10168,"Ġweeping":10169,"3118":10170,"4512":10171,"Ġabol":10172,"Ġoutward":10173,"Ġjury":10174,"Ġlightning":10175,"Ġcharitable":10176,"Ġwarmth":10177,"Ġconcealed":10178,"Ġpassionate":10179,"ĠHistory":10180,"iem":10181,"natural":10182,"ĠHIS":10183,"Ġpersec":10184,"Ġpref":10185,"Ġawakened":10186,"Ġ1885":10187,"Ġadvantages":10188,"Ġidentify":10189,"Ġfloating":10190,"Ġresistance":10191,"Ġshrewd":10192,"IF":10193,"acia":10194,"rum":10195,"vous":10196,"inations":10197,"icable":10198,"4252":10199,"uming":10200,"Ġweren":10201,"Ġgoats":10202,"Ġadapt":10203,"289":10204,"ĠĠĠĠĠĠĠĠĠĠ":10205,"Ġforming":10206,"Ġrifle":10207,"Ġtrifle":10208,"Ġtyp":10209,"Ġelders":10210,"Ġvirus":10211,"Ġvoyage":10212,"Americ":10213,"piece":10214,"Ġexisted":10215,"4827":10216,"Ġdownstairs":10217,"Ġelbow":10218,"chess":10219,"Ġriches":10220,"Ġgraceful":10221,"Ġindicating":10222,"Ġtechnical":10223,"oft":10224,"ĠWatson":10225,"Ġoffices":10226,"Ġ1896":10227,"Ġaircraft":10228,"Ġopposed":10229,"Ġaccessible":10230,"Ġ1875":10231,"Ġsensation":10232,"Ġcalmly":10233,"strode":10234,"ĠProtestant":10235,"Ġwaving":10236,"ĠAk":10237,"raced":10238,"ĠMAR":10239,"ĠBird":10240,"ĠLie":10241,"ĠFortun":10242,"uma":10243,"ĠStory":10244,"Ġappar":10245,"Ġappla":10246,"Ġanswering":10247,"ĠWithin":10248,"Ġtenderness":10249,"OSS":10250,"Ġdisgrace":10251,"ĠBelgium":10252,"vant":10253,"Ġbefall":10254,"ĠBUT":10255,"ĠPhoe":10256,"Ġexagger":10257,"6637":10258,"resses":10259,"Ġdesires":10260,"Ġeloqu":10261,"OUND":10262,"Ġperiodic":10263,"ĠRodney":10264,"4261":10265,"ĠDutch":10266,"4697":10267,"Ġentreat":10268,"Ġindependence":10269,"Ġsunlight":10270,"Ġneighbors":10271,"Ġstreams":10272,"Ġamazement":10273,"Ġceremony":10274,"AV":10275,"Ġwars":10276,"Ġbury":10277,"ĠGran":10278,"Ġjar":10279,"Ġflu":10280,"Ġscandal":10281,"Ġ1945":10282,"Ġ1884":10283,"Ġpreviously":10284,"Ġshepherd":10285,"Ġthreshold":10286,"ĠLevites":10287,"ĠCorey":10288,"iast":10289,"Ġcure":10290,"4761":10291,"ĠRock":10292,"Ġforests":10293,"Ġmutual":10294,"Ġobeyed":10295,"orum":10296,"icane":10297,"9918":10298,"agan":10299,"Ġcontented":10300,"Ġ1975":10301,"Ġanxiously":10302,"THING":10303,"Ġintroduction":10304,"worthy":10305,"Ġgleam":10306,"Ġcontributions":10307,"table":10308,"ĠTod":10309,"ĠCre":10310,"Ġsailed":10311,"Ġbrush":10312,"ĠInter":10313,"Ġwherever":10314,"ĠValley":10315,"Ġlawn":10316,"Ġ1902":10317,"Ġpretended":10318,"going":10319,"Ġsatisfy":10320,"Ġsubscribe":10321,"Ġpowder":10322,"6442":10323,"Ġsubtle":10324,"Ġboards":10325,"Ġdrag":10326,"Ġbrook":10327,"ĠCliff":10328,"Ġconfirmation":10329,"Ġindirectly":10330,"Ġunpleasant":10331,"ĠBig":10332,"ĠGATT":10333,"ĠHell":10334,"Ġ89":10335,"Ġtrim":10336,"Ġblacks":10337,"Ġranch":10338,"Ġfurious":10339,"Ġpreparing":10340,"Ġcovering":10341,"ĠPersian":10342,"Ġsimplicity":10343,"Ġhedge":10344,"dig":10345,"eff":10346,"Ġdew":10347,"Ġaren":10348,"udder":10349,"Ġparting":10350,"Ġharvest":10351,"ĠManpower":10352,"Ġeducated":10353,"Ġwander":10354,"ĠBulstrode":10355,"ĠTheron":10356,"ĠMarianne":10357,"uity":10358,"6737":10359,"Ġlikes":10360,"Ġchlor":10361,"Ġclay":10362,"blance":10363,"ERE":10364,"Ġcrum":10365,"Ġconceived":10366,"Ġgasped":10367,"Ġoriginally":10368,"chers":10369,"Ġprimary":10370,"Ġdistricts":10371,"minded":10372,"stri":10373,"chin":10374,"0587":10375,"Ġoutput":10376,"Ġworkers":10377,"Ġpersist":10378,"Ġassume":10379,"Ġmonster":10380,"Ġcentered":10381,"Ġculture":10382,"ĠMinisters":10383,"Ġjealousy":10384,"ĠSarah":10385,"iated":10386,"ĠHay":10387,"ĠWes":10388,"ĠEqu":10389,"ĠDirector":10390,"ĠJenn":10391,"Ġreprodu":10392,"Ġprovince":10393,"Ġirre":10394,"Ġhyper":10395,"Ġadventures":10396,"Ġvaguely":10397,"lem":10398,"ĠRuth":10399,"Ġemotions":10400,"ĠHarriet":10401,"ĠPersons":10402,"Ġfavourite":10403,"Ġpurchase":10404,"ĠBarbicane":10405,"does":10406,"vag":10407,"isha":10408,"anim":10409,"ĠMur":10410,"tta":10411,"Ġproprietor":10412,"Ġtonight":10413,"Ġinvisible":10414,"rary":10415,"Ġsources":10416,"Ġ119":10417,"amond":10418,"ĠDev":10419,"Ġmultip":10420,"Ġuneas":10421,"wick":10422,"itudes":10423,"aration":10424,"6307":10425,"Ġcolors":10426,"Ġleads":10427,"Ġlegally":10428,"Ġcraw":10429,"Ġdamaged":10430,"Ġcombined":10431,"Ġcrimson":10432,"isputes":10433,"Ġwriters":10434,"IE":10435,"Ġsequ":10436,"Ġvoc":10437,"peration":10438,"racter":10439,"bean":10440,"Ġcoastal":10441,"ĠWilbur":10442,"Ġbef":10443,"3177":10444,"ĠNich":10445,"6287":10446,"Ġkneel":10447,"Ġclearing":10448,"uset":10449,"TRACT":10450,"Ġexclusion":10451,"Ġdisgust":10452,"Ġornament":10453,"pass":10454,"Ġ.\"":10455,"Ġbapt":10456,"Ġpist":10457,"ĠAB":10458,"ĠWent":10459,"ĠDomin":10460,"Ġcrimes":10461,"CTU":10462,"Ġpainting":10463,"ĠCCC":10464,"6271":10465,"ĠDON":10466,"Ġguilt":10467,"Ġstopping":10468,"athetic":10469,"Ġrecords":10470,"ĠRosamond":10471,"Ġmap":10472,"Ġgoss":10473,"oward":10474,"6817":10475,"uded":10476,"120":10477,"Ġfeels":10478,"Ġlessons":10479,"Ġadmired":10480,"Ġvisitors":10481,"Ġstruggling":10482,"dess":10483,"ube":10484,"Ġwasted":10485,"Ġweep":10486,"ĠCale":10487,"Ġsuitable":10488,"ĠGNP":10489,"Ġindemn":10490,"Ġrelay":10491,"Ġwax":10492,"Ġranks":10493,"Ġ1971":10494,"ĠRepresent":10495,"Ġtravelling":10496,"marine":10497,"Ġlofty":10498,"ball":10499,"atisf":10500,"Ġashes":10501,"ĠGal":10502,"ĠGib":10503,"ĠRight":10504,"Ġgrows":10505,"ĠAlbert":10506,"Ġuneasy":10507,"Ġlecture":10508,"Ġaven":10509,"Ġ1906":10510,"0082":10511,"Ġvic":10512,"ouring":10513,"ĠCarib":10514,"Ġassociation":10515,"Ġaltered":10516,"Ġimpatient":10517,"Ġlandscape":10518,"ĠSeveral":10519,"pan":10520,"uation":10521,"Ġpush":10522,"Ġding":10523,"ĠWere":10524,"ĠLast":10525,"4511":10526,"6727":10527,"6233":10528,"uster":10529,"ĠRam":10530,"Ġuncon":10531,"ĠArmen":10532,"Ġexchan":10533,"Ġcomplaint":10534,"Ġsteamer":10535,"PP":10536,"inn":10537,"Ġhay":10538,"Ġdeemed":10539,"6527":10540,"4587":10541,"0777":10542,"Ġsharing":10543,"Ġsunk":10544,"Ġcalculate":10545,"ĠCastle":10546,"Ġincomplete":10547,"Ġ123":10548,"Ġsoot":10549,"ĠEND":10550,"Ġarrive":10551,"ĠBenj":10552,"Ġarrested":10553,"ĠPhilistines":10554,"arms":10555,"ĠIT":10556,"Ġsucc":10557,"ĠFree":10558,"3127":10559,"4897":10560,"unc":10561,"achuset":10562,"Ġlonging":10563,"Ġslope":10564,"angled":10565,"7232":10566,"uthors":10567,"Ġpleasures":10568,"Ġcommandment":10569,"ipelines":10570,"rat":10571,"ĠHou":10572,"Ġrhy":10573,"6787":10574,"ĠRama":10575,"4337":10576,"Ġ1967":10577,"Ġcursed":10578,"ĠAfghan":10579,"Ġpressing":10580,"Ġvalleys":10581,"Ġconfessed":10582,"ĠSecret":10583,"achusetts":10584,"hast":10585,"ĠAv":10586,"ĠSE":10587,"4177":10588,"6238":10589,"Ġbacks":10590,"Ġacres":10591,"Ġluxur":10592,"sufficient":10593,"National":10594,"iate":10595,"inent":10596,"Ġwagon":10597,"Ġbits":10598,"itors":10599,"Ġdairy":10600,"Ġecc":10601,"ĠWater":10602,"ĠDy":10603,"0527":10604,"0577":10605,"Ġaccused":10606,"Ġcoarse":10607,"Ġsubmarine":10608,"Ġpromotion":10609,"Ġ1881":10610,"Ġcaptive":10611,"Ġkilling":10612,"Ġuniversity":10613,"Ġrebu":10614,"wen":10615,"rec":10616,"Ġec":10617,"ĠMess":10618,"geant":10619,"ĠLamb":10620,"Ġthereby":10621,"0307":10622,"ĠAlan":10623,"Ġcreate":10624,"ĠPhr":10625,"Wh":10626,"lee":10627,"Ġstare":10628,"ĠCub":10629,"ĠLocation":10630,"3740":10631,"4877":10632,"Ġreplaced":10633,"Ġbelt":10634,"Ġcontinental":10635,"letter":10636,"Ġdamn":10637,"Ġattempts":10638,"Ġabandon":10639,"Ġsaints":10640,"Ġinspired":10641,"ĠMonday":10642,"Ġmigrant":10643,"lden":10644,"Ġratt":10645,"Ġvary":10646,"0397":10647,"9343":10648,"Ġpled":10649,"ĠStan":10650,"Ġpoem":10651,"Ġcommittee":10652,"omething":10653,"Ġtrif":10654,"ĠPresley":10655,"ĠComparative":10656,"Ġextravag":10657,"Ġconsequently":10658,"down":10659,"eis":10660,"point":10661,"tree":10662,"Ġnec":10663,"3827":10664,"ĠEp":10665,"9243":10666,"ĠOl":10667,"Ġintend":10668,"ĠRh":10669,"Ġgoin":10670,"Ġlace":10671,"Ġ1903":10672,"Ġelephant":10673,"Ġrecognition":10674,"ambia":10675,"Ġenterprise":10676,"Ġleisure":10677,"4299":10678,"6237":10679,"9161":10680,"9577":10681,"osion":10682,"Ġdidst":10683,"Ġirregular":10684,"Ġsolitary":10685,"ĠMalays":10686,"oiselle":10687,"Ġrarely":10688,"ĠJosh":10689,"Ġassembled":10690,"Ġtriumphant":10691,"4807":10692,"agu":10693,"Ġdishon":10694,"Ġpartner":10695,"ĠNearly":10696,"Ġ1887":10697,"Ġ1888":10698,"Ġdespised":10699,"Ġexperiences":10700,"Ġpreparation":10701,"ĠDigraph":10702,"Ġwot":10703,"ĠWhan":10704,"akistan":10705,"Ġlip":10706,"Ġark":10707,"Ġadjust":10708,"Ġlimits":10709,"ĠHelium":10710,"ĠEthiop":10711,"Ġroute":10712,"Ġtalent":10713,"ĠInto":10714,"Ġluxury":10715,"aria":10716,"Ġdeer":10717,"3168":10718,"ĠOcc":10719,"850":10720,"ava":10721,"Ġpresents":10722,"Ġincor":10723,"Ġvolumes":10724,"ĠCountry":10725,"700":10726,"dened":10727,"hin":10728,"Ġbinary":10729,"Ġnought":10730,"Ġthri":10731,"ĠBox":10732,"ĠPope":10733,"ĠWTO":10734,"Ġhelping":10735,"Ġantiqu":10736,"ĠSatan":10737,"Ġbetrayed":10738,"Con":10739,"dale":10740,"Ġhook":10741,"Ġstove":10742,"0277":10743,"0555":10744,"Ġusers":10745,"Ġscent":10746,"Ġreserved":10747,"Ġpreserv":10748,"Ġtrap":10749,"Ġeverlast":10750,"Ġirres":10751,"Ġjudicial":10752,"ĠClub":10753,"Ġ1882":10754,"Ġmagaz":10755,"Ġannounce":10756,"Ġchecks":10757,"ĠCONTRACT":10758,"Ġachieve":10759,"ĠOffice":10760,"Ġcorporation":10761,"oux":10762,"stan":10763,"Ġhadde":10764,"oop":10765,"6541":10766,"0237":10767,"ĠHeav":10768,"6399":10769,"Ġquit":10770,"Ġ400":10771,"Ġcarrier":10772,"ĠArgent":10773,"Ġfinest":10774,"Ġcomparatively":10775,"Ġgloves":10776,"ĠMassachusetts":10777,"ĠTun":10778,"ĠFore":10779,"ĠNaut":10780,"Ġadditions":10781,"Ġincomp":10782,"ĠDear":10783,"Ġtread":10784,"Ġplays":10785,"Ġwishing":10786,"Ġ1972":10787,"Ġ1883":10788,"Ġsuccession":10789,"Ġsatisfactory":10790,"Ġduke":10791,"Ġrecommend":10792,"Ġdusk":10793,"Take":10794,"ded":10795,"iner":10796,"Ġbone":10797,"Ġbother":10798,"Ġstim":10799,"Ġ($":10800,"6755":10801,"Ġshrill":10802,"4891":10803,"artment":10804,"Ġabomin":10805,"Ġrestaur":10806,"Ġparallel":10807,"observer":10808,"ĠAntar":10809,"December":10810,"drew":10811,"Ġdiver":10812,"owl":10813,"stuffs":10814,"Ġ110":10815,"ills":10816,"estion":10817,"0517":10818,"iend":10819,"Ġunited":10820,"ĠUrs":10821,"Ġoverth":10822,"Ġclung":10823,"Ġmustn":10824,"Ġowners":10825,"Ġbackground":10826,"Ġdeserve":10827,"Ġ1948":10828,"ARK":10829,"Ġpromote":10830,"Ġdoubtful":10831,"Ġ1878":10832,"Ġangle":10833,"Dear":10834,"ATIONS":10835,"Ġinstructions":10836,"Ġanchor":10837,"Ġsuspended":10838,"ĠGregory":10839,"mo":10840,"Ġwool":10841,"arge":10842,"leg":10843,"Ġbrows":10844,"Ġscenes":10845,"3095":10846,"Ġcondemn":10847,"Ġdivide":10848,"ĠBrother":10849,"Ġfifth":10850,"Ġfavorite":10851,"Ġproprietary":10852,"Re":10853,"haired":10854,"stra":10855,"ĠBan":10856,"6561":10857,"4557":10858,"6741":10859,"6722":10860,"4837":10861,"4857":10862,"igne":10863,"Ġclasped":10864,"9697":10865,"Ġplanted":10866,"erem":10867,"Ġmarrying":10868,"Ġ1886":10869,"ĠCanaan":10870,"Ġlords":10871,"ĠMichel":10872,"Ġlamps":10873,"%)":10874,"CR":10875,"prop":10876,"Ġassembly":10877,"ĠMah":10878,"0511":10879,"Ġ809":10880,"Ġ1907":10881,"Ġmoist":10882,"Ġregarding":10883,"Ġauthorities":10884,"Ġrailroad":10885,"Ġattractive":10886,"ĠCollege":10887,"raising":10888,"ĠHorn":10889,"6227":10890,"Ġenchant":10891,"Ġresidence":10892,"Ġdropping":10893,"Ġslaught":10894,"Ġ1877":10895,"Ġmeasured":10896,"riday":10897,"coming":10898,"Ġidentification":10899,"ĠIrrigated":10900,"Ġinvented":10901,"Ġconvenient":10902,"Ġhired":10903,"amen":10904,"ĠPart":10905,"6537":10906,"3597":10907,"3817":10908,"0787":10909,"Ġenvy":10910,"Ġinvitation":10911,"Ġdrunken":10912,"Ġmodification":10913,"Ġrainy":10914,"Ġremembrance":10915,"Ġalternate":10916,"Ġdocuments":10917,"Ġfootsteps":10918,"Ġom":10919,"Ġbars":10920,"adian":10921,"ĠBrent":10922,"ĠCertainly":10923,"4597":10924,"ourg":10925,"6361":10926,"1599":10927,"Ġadequ":10928,"mances":10929,"130":10930,"Ġentry":10931,"Ġtramp":10932,"Ġmessenger":10933,"Ġpunish":10934,"ĠArabia":10935,"Ġpacked":10936,"Ġmotor":10937,"Ġdeduct":10938,"Ġrugged":10939,"Ġtemporary":10940,"Ġperformances":10941,"oubtedly":10942,"ĠNautilus":10943,"En":10944,"Ġfox":10945,"Ġ1949":10946,"ĠPry":10947,"3599":10948,"3885":10949,"Ġaccur":10950,"Ġhumour":10951,"ommod":10952,"Ġpatron":10953,"Ġhealthy":10954,"Ġdiscontin":10955,"RAPH":10956,"Ġinternal":10957,"Ġatque":10958,"6708":10959,"3891":10960,"ĠDum":10961,"4332":10962,"4341":10963,"0361":10964,"Ġclimate":10965,"9097":10966,"Ġsentiments":10967,"Ġskirt":10968,"Ġfuneral":10969,"Ġloudly":10970,"Ġissued":10971,"Ġseverely":10972,"Ġpursue":10973,"Ġnewspapers":10974,"Ġjewels":10975,"ĠBad":10976,"ĠBall":10977,"4222":10978,"3577":10979,"4717":10980,"4527":10981,"osla":10982,"Ġchambers":10983,"Ġharness":10984,"Ġexpand":10985,"Ġteachers":10986,"comp":10987,"mered":10988,"Ġtune":10989,"Ġnerve":10990,"ĠTorn":10991,"lym":10992,"4577":10993,"4861":10994,"4811":10995,"0599":10996,"0532":10997,"ĠHeb":10998,"Ġbrisk":10999,"3361":11000,"ogy":11001,"Ġlists":11002,"ĠUNDER":11003,"Ġruler":11004,"Ġdilig":11005,"Some":11006,"ero":11007,"Ġdashed":11008,"6587":11009,"4217":11010,"3887":11011,"9261":11012,"0537":11013,"Ġbegat":11014,"grat":11015,"Ġsailors":11016,"Ġsignificant":11017,"ĠEustacia":11018,"OT":11019,"houses":11020,"othes":11021,"ĠSher":11022,"Ġsofa":11023,"3811":11024,"0717":11025,"Ġflames":11026,"Ġpassions":11027,"3641":11028,"Ġconquer":11029,"criptions":11030,"][":11031,"Ġdaring":11032,"ĠWay":11033,"Ġrushing":11034,"Ġmans":11035,"0563":11036,"Ġamusing":11037,"Ġremo":11038,"Ġextrem":11039,"Ġstudies":11040,"...........................":11041,"Ġbarbar":11042,"Ġexamine":11043,"Ġcompliment":11044,"Ġreleased":11045,"Ġpha":11046,"thy":11047,"oren":11048,"Ġexternal":11049,"4802":11050,"ĠRIGHT":11051,"4391":11052,"Ġtwisted":11053,"teenth":11054,"Ġhearth":11055,"Ġaffl":11056,"Ġexpecting":11057,"organ":11058,"Ġemerged":11059,"________":11060,"ĠSweden":11061,"solete":11062,"Ġber":11063,"anas":11064,"Ġorchard":11065,"ĠLiddy":11066,"Ġconj":11067,"3527":11068,"6799":11069,"4437":11070,"Ġmonot":11071,"Ġ1973":11072,"Ġ1876":11073,"ĠApoll":11074,"Ġpitched":11075,"Ġmissing":11076,"Ġgallant":11077,"Ġcurtains":11078,"****************":11079,"Ġcaution":11080,"Ġpattern":11081,"cut":11082,"iations":11083,"Ġauthors":11084,"Ġmars":11085,"6558":11086,"3218":11087,"4237":11088,"3517":11089,"4555":11090,"0508":11091,"Ġchains":11092,"Ġscrew":11093,"Ġaccent":11094,"Ġnewly":11095,"Ġ1908":11096,"Ġ1500":11097,"Ġboxes":11098,"Ġdrug":11099,"Ġprohibition":11100,"Ġinstitutions":11101,"Gu":11102,"walk":11103,"Ġdun":11104,"Ġwithdrew":11105,"Ġnotwithstanding":11106,"ĠHil":11107,"4541":11108,"4568":11109,"9217":11110,"0561":11111,"4361":11112,"Ġpurse":11113,"Ġmonstr":11114,"Ġmusical":11115,"Ġprocession":11116,"Ġsituated":11117,"';":11118,"OSE":11119,"wan":11120,"aly":11121,"ĠDaw":11122,"0515":11123,"Ġdishes":11124,"nex":11125,"Ġrapt":11126,"Ġconsisted":11127,"Ġtermin":11128,"Ġcris":11129,"Ġmob":11130,"Ġassurance":11131,"Ġhighway":11132,"UND":11133,"Ġdisagreeable":11134,"Ġinfringement":11135,"ĠCaribbean":11136,"Pe":11137,"cu":11138,"hop":11139,"Ġbatter":11140,"ĠCross":11141,"3557":11142,"4741":11143,"6217":11144,"cloth":11145,"phia":11146,"Ġwarn":11147,"bear":11148,"Ġdevotion":11149,"Ġstruggled":11150,"Ġprimitive":11151,"Ġtumult":11152,"Ġcompassion":11153,"ĠStandard":11154,"Ġtragedy":11155,"ĠBenjamin":11156,"Ġfoes":11157,"Ġhaught":11158,"uter":11159,"ĠAz":11160,"ĠPap":11161,"6588":11162,"4297":11163,"4754":11164,"6201":11165,"6804":11166,"4331":11167,"6397":11168,"Ġenable":11169,"ĠProgress":11170,"necess":11171,"Ġaccum":11172,"Ġrefined":11173,"ĠIslam":11174,"Ġcandid":11175,"With":11176,"fare":11177,"0077":11178,"ĠBi":11179,"ĠGard":11180,"4831":11181,"3801":11182,"9103":11183,"0597":11184,"ĠĠĠĠĠĠĠĠĠĠĠĠĠĠĠ":11185,"Ġsubur":11186,"grim":11187,"Ġcriminals":11188,"Nay":11189,"Ġtie":11190,"Ġcu":11191,"raq":11192,"ĠGiles":11193,"4787":11194,"4777":11195,"0291":11196,"Ġalarmed":11197,"4399":11198,"Ġarmour":11199,"Ġsixteen":11200,"Ġstaying":11201,"Ġhesitation":11202,"ĠREAD":11203,"Ġmailing":11204,"ĠCaleb":11205,"burn":11206,"course":11207,"Ġsullen":11208,"ĠGhost":11209,"4887":11210,"iven":11211,"0961":11212,"Ġmeanwhile":11213,"Ġcheerfully":11214,"Ġspeedily":11215,"Ġbills":11216,"Ġtemptation":11217,"ĠZeus":11218,"Ġsearched":11219,"rades":11220,"inqu":11221,"reth":11222,"Ġwhoso":11223,"addy":11224,"ĠCabinet":11225,"ulates":11226,"Ġrings":11227,"4757":11228,"4522":11229,"6899":11230,"6877":11231,"0817":11232,"ĠRab":11233,"6341":11234,"1822":11235,"Ġspecul":11236,"Ġjustified":11237,"ugosla":11238,"Ġcigaret":11239,"Ġfulfilled":11240,"AIN":11241,"ĠTil":11242,"Ġbutt":11243,"3261":11244,"6707":11245,"Ġshri":11246,"6291":11247,"6255":11248,"3892":11249,"3877":11250,"9407":11251,"Ġchase":11252,"Ġreserve":11253,"Ġcoax":11254,"Ġinstruction":11255,"Ġregiment":11256,"Ġ1974":11257,"Ġlodging":11258,"Ġamazed":11259,"ĠUrsula":11260,"fashion":11261,"Ġgang":11262,"Ġthorn":11263,"Ġnephe":11264,"4701":11265,"4707":11266,"4885":11267,"6831":11268,"4496":11269,"Ġclad":11270,"Ġgladly":11271,"Ġfraud":11272,"Ġcabinet":11273,"ĠJustice":11274,"ĠAccording":11275,"sal":11276,"Ġmast":11277,"Ġpuff":11278,"cel":11279,"iliation":11280,"ĠList":11281,"4737":11282,"4797":11283,"4711":11284,"6797":11285,"0217":11286,"6211":11287,"9298":11288,"880":11289,"6337":11290,"4431":11291,"Ġthanked":11292,"ĠStrait":11293,"Ġ1962":11294,"Ġawfully":11295,"Ġdealing":11296,"Ġplateau":11297,"ĠWORK":11298,"ĠJoshua":11299,"Certainly":11300,"uw":11301,"win":11302,"Ġcove":11303,"urt":11304,"ĠBla":11305,"6517":11306,"6577":11307,"ĠNone":11308,"0591":11309,"Ġenvironment":11310,"ĠYemen":11311,"210":11312,"Ġglowing":11313,"Ġinfant":11314,"Ġobsolete":11315,"atively":11316,"Ġprophes":11317,"ĠRoad":11318,"Ġvolunteer":11319,"ĠTyrone":11320,"Ġadopt":11321,"Ġpave":11322,"Ġpony":11323,"Ġinacc":11324,"ota":11325,"ĠAK":11326,"ripp":11327,"Ġsheer":11328,"0541":11329,"Ġworkmen":11330,"Ġsets":11331,"Ġ1947":11332,"Ġcolours":11333,"Ġspoiled":11334,"ELL":11335,"Ġcompanies":11336,"Ġbreadth":11337,"Ġwitnesses":11338,"Ġnumbered":11339,"Ġadministered":11340,"Ġdeclined":11341,"ĠCedric":11342,"Ġ130":11343,"ĠHE":11344,"empor":11345,"0295":11346,"3899":11347,"4395":11348,"4441":11349,"Ġregister":11350,"because":11351,"Ġrepresentations":11352,"Ġconducted":11353,"Ġaccomplish":11354,"ĠOzma":11355,"Ġneglected":11356,"ser":11357,"Ġlamb":11358,"ira":11359,"3277":11360,"ersed":11361,"4722":11362,"6298":11363,"iguous":11364,"Ġshaggy":11365,"9603":11366,"9441":11367,"ĠInland":11368,"Ġoffence":11369,"Ġterrif":11370,"Ġwonders":11371,"ĠLeague":11372,"Ġfourteen":11373,"Ġmuscles":11374,"Ġpencil":11375,"Ġlicensed":11376,"Ġdiamonds":11377,"Ġwounds":11378,"ĠHy":11379,"ĠMoon":11380,"Ġrows":11381,"4291":11382,"4495":11383,"Ġblowing":11384,"Ġdelicious":11385,"ĠCharacter":11386,"Ġ1879":11387,"ĠComstock":11388,"ĠIMP":11389,"Ġcigarette":11390,"Mrs":11391,"Ġdial":11392,"Ġreass":11393,"ĠMY":11394,"ĠMER":11395,"ĠBull":11396,"ĠPakistan":11397,"ĠGall":11398,"ĠFriday":11399,"Ġworsh":11400,"4785":11401,"3841":11402,"9095":11403,"Ġoffended":11404,"3437":11405,"Ġ1997":11406,"Ġspeaks":11407,"Ġhopeless":11408,"Ġobserving":11409,"Ġsurrounding":11410,"Ġascertain":11411,"Ġbru":11412,"Ġmend":11413,"emoiselle":11414,"6511":11415,"0285":11416,"0588":11417,"Ġrod":11418,"6697":11419,"9091":11420,"ĠKong":11421,"1061":11422,"ĠMarcus":11423,"Ġviewing":11424,"Ġstrife":11425,"Ġpulling":11426,"ĠFlam":11427,"ĠMorocc":11428,"ĠProduced":11429,"ĠLebanon":11430,"Ġwont":11431,"erd":11432,"ĠBol":11433,"Ġ2000":11434,"3507":11435,"6711":11436,"6277":11437,"ĠEther":11438,"Ġagitation":11439,"perhaps":11440,"9698":11441,"9497":11442,"ounted":11443,"neath":11444,"Ġteam":11445,"ĠChamber":11446,"Ġfools":11447,"ĠWherof":11448,"ĠVolunte":11449,"Ġtremendous":11450,"doll":11451,"Ġmoss":11452,"Ġcake":11453,"Ġfab":11454,"Ġ1946":11455,"0557":11456,"Ġabode":11457,"ilding":11458,"ialect":11459,"Ġseeming":11460,"Ġswinging":11461,"Ġcruelty":11462,"Ġhacker":11463,"Ġarrangements":11464,"Ġnarrative":11465,"Ġappetite":11466,"Ġrenewed":11467,"ICT":11468,"mighty":11469,"orious":11470,"ĠWalk":11471,"Ġconception":11472,"4288":11473,"3591":11474,"3587":11475,"Ġshudder":11476,"Ġscan":11477,"ĠĠĠĠĠĠĠĠĠĠĠĠĠĠĠĠĠ":11478,"Ġconsumed":11479,"Ġcares":11480,"EST":11481,"ĠINC":11482,"Ġquestioned":11483,"Ġsecrets":11484,"Ġlifting":11485,"Ġeverlasting":11486,"Ġmould":11487,"Ġnig":11488,"0087":11489,"6701":11490,"0297":11491,"6807":11492,"4308":11493,"9631":11494,"0641":11495,"Ġraces":11496,"Ġterribly":11497,"IST":11498,"ĠHarry":11499,"Ġsuperst":11500,"Ġdespite":11501,"Ġhoping":11502,"Ġearliest":11503,"Ġgreeted":11504,"fense":11505,"Ġting":11506,"Ġau":11507,"Ġ1958":11508,"emon":11509,"6585":11510,"3297":11511,"4285":11512,"6785":11513,"6715":11514,"0207":11515,"6895":11516,"6887":11517,"ĠREM":11518,"Ġflies":11519,"Ġslipp":11520,"Ġformid":11521,"Ġengage":11522,"Ġsaloon":11523,"ĠChristianity":11524,"ĠShould":11525,"Ġcustoms":11526,"Ġlucky":11527,"Ġvelvet":11528,"ĠAmb":11529,"ĠSultan":11530,"6525":11531,"3217":11532,"3522":11533,"4507":11534,"6897":11535,"0501":11536,"6392":11537,"0391":11538,"ĠYugosla":11539,"9037":11540,"ilda":11541,"Ġ600":11542,"Ġtraff":11543,"Ġendless":11544,"Ġinsol":11545,"Ġperfection":11546,"Ġdoubts":11547,"Ġcaptivity":11548,"Ġinquire":11549,"Ġmessages":11550,"ysis":11551,"Ġimpatience":11552,"Econom":11553,"aver":11554,"inine":11555,"itively":11556,"Ġcock":11557,"ĠMis":11558,"Ġsect":11559,"Ġcomrades":11560,"4287":11561,"3511":11562,"4749":11563,"0215":11564,"Ġtheirs":11565,"Ġretire":11566,"Ġwolf":11567,"ĠDarrow":11568,"Ġpreceding":11569,"ĠTurkish":11570,"Ġuncomfortable":11571,"bout":11572,"Ġwhit":11573,"Ġanat":11574,"Ġconvent":11575,"Ġcongrat":11576,"Ġvio":11577,"6597":11578,"4788":11579,"6777":11580,"6215":11581,"6225":11582,"4888":11583,"6861":11584,"6808":11585,"9437":11586,"Ġaccommod":11587,"Ġappointment":11588,"Ġsubdu":11589,"Ġsurvey":11590,"Ġconcert":11591,"Ġlowest":11592,"Ġpeaceful":11593,"ascal":11594,"Ġneighborhood":11595,"ĠWorkers":11596,"ĠTin":11597,"ĠHas":11598,"3254":11599,"ĠNations":11600,"4227":11601,"6395":11602,"0407":11603,"Ġdescent":11604,"uffled":11605,"Ġembass":11606,"Ġviolently":11607,"Ġbarely":11608,"Ġavoided":11609,"Ġconstitutional":11610,"Ġfrankly":11611,"Ad":11612,"rne":11613,"edu":11614,"Ġmol":11615,"ĠHud":11616,"Ġroused":11617,"3222":11618,"4727":11619,"6299":11620,"4899":11621,"6841":11622,"6888":11623,"6811":11624,"6398":11625,"6331":11626,"0395":11627,"Ġlonged":11628,"Ġregulating":11629,"Ġguards":11630,"Ġskies":11631,"Ġpolished":11632,"Ġtemples":11633,"ĠConvention":11634,"Ġ1977":11635,"Ġfortnight":11636,"banks":11637,"ĠSecond":11638,"Ay":11639,"Cl":11640,"Ġ+":11641,"ĠHum":11642,"Ġvap":11643,"6501":11644,"6522":11645,"4277":11646,"4755":11647,"4537":11648,"6788":11649,"Ġje":11650,"0431":11651,"Ġscant":11652,"Ġdesigned":11653,"ensus":11654,"herent":11655,"Ġcontinent":11656,"chair":11657,"Ġpenny":11658,"Ġmemories":11659,"Ġfiery":11660,"py":11661,"wr":11662,"wixt":11663,"Ġsaving":11664,"Ġdeaf":11665,"uled":11666,"3241":11667,"0201":11668,"0585":11669,"ivia":11670,"0364":11671,"acing":11672,"Ġchill":11673,"9499":11674,"ressing":11675,"ailable":11676,"Ġincons":11677,"Ġnatives":11678,"Ġdiscussed":11679,"ĠCongo":11680,"borne":11681,"ĠTri":11682,"riages":11683,"Ġsack":11684,"4501":11685,"4801":11686,"3857":11687,"9255":11688,"0595":11689,"0837":11690,"9397":11691,"9307":11692,"4491":11693,"9491":11694,"Ġvisits":11695,"ĠAdmir":11696,"ĠPierre":11697,"ĠEVEN":11698,"ĠWentworth":11699,"\"),":11700,"nus":11701,"uv":11702,"vak":11703,"wind":11704,"zes":11705,"isation":11706,"Ġinjust":11707,"4795":11708,"4725":11709,"4300":11710,"9061":11711,"0661":11712,"Ġsunny":11713,"Ġdrops":11714,"Ġmeantime":11715,"Ġfaintly":11716,"Ġprosperity":11717,"Ġrecollection":11718,"ĠTree":11719,"Ġexult":11720,"4588":11721,"6825":11722,"ĠEph":11723,"0525":11724,"0341":11725,"Ġenlar":11726,"9607":11727,"Ġblade":11728,"230":11729,"Ġ1968":11730,"Ġparlor":11731,"ĠBeing":11732,"Ġirrigated":11733,"Ġclothed":11734,"Ġsynonymous":11735,"Ġbot":11736,"Ġdense":11737,"illings":11738,"ĠCOM":11739,"ushes":11740,"ĠLes":11741,"3211":11742,"3287":11743,"4211":11744,"6207":11745,"0507":11746,"Ġunen":11747,"Ġunnecess":11748,"apore":11749,"0437":11750,"ĠKingdom":11751,"Ġemployee":11752,"Ġpaths":11753,"Ġmanufactured":11754,"Ġeventually":11755,"lest":11756,"Ġaest":11757,"3298":11758,"4207":11759,"3541":11760,"3588":11761,"4561":11762,"4515":11763,"6288":11764,"6222":11765,"4841":11766,"3875":11767,"asty":11768,"Ġjolly":11769,"Ġfare":11770,"ranean":11771,"Ġdiscl":11772,"ĠByrne":11773,"Ġcreep":11774,"Ġrenamed":11775,"OV":11776,"ja":11777,"rot":11778,"Ġfret":11779,"ĠLXX":11780,"4791":11781,"3898":11782,"3897":11783,"Ġfacul":11784,"6391":11785,"1231":11786,"Ġconfession":11787,"ĠWoodman":11788,"Ġdefeat":11789,"fied":11790,"ĠBeth":11791,"6717":11792,"0257":11793,"9287":11794,"0941":11795,"Ġharder":11796,"Ġwildly":11797,"Ġbreathe":11798,"Ġmassive":11799,"ĠTemple":11800,"FORE":11801,"Ġfaculty":11802,"Ġ1915":11803,"Ġbutton":11804,"4241":11805,"6757":11806,"9277":11807,"Ġeditor":11808,"ucle":11809,"Ġprett":11810,"Ġcrest":11811,"IDENT":11812,"Ġplantation":11813,"Ġfountain":11814,"Ġnom":11815,"ĠGen":11816,"3225":11817,"3585":11818,"6791":11819,"Ġknelt":11820,"ĠStrick":11821,"icks":11822,"Ġprojectile":11823,"Ġborders":11824,"ouet":11825,"Ġfaster":11826,"Ġgird":11827,"6599":11828,"4898":11829,"4855":11830,"0398":11831,"Ġ1998":11832,"ifications":11833,"Ġrequires":11834,"Ġscholde":11835,"Ġsurroundings":11836,"ĠClifford":11837,"fashioned":11838,")/":11839,"Any":11840,"Ġtact":11841,"Ġced":11842,"imb":11843,"4231":11844,"4715":11845,"0807":11846,"Ġaged":11847,"6641":11848,"Ġresign":11849,"Ġprovides":11850,"ĠWhatever":11851,"ĠPhiladel":11852,"Ġpicturesque":11853,"Ġbending":11854,"Ġascended":11855,"Ġencouraged":11856,"Ġsymbol":11857,"ĠSUCH":11858,"Ġmarvell":11859,"GE":11860,"eenth":11861,"ĠPost":11862,"6557":11863,"3291":11864,"3207":11865,"0299":11866,"3837":11867,"3807":11868,"Ġfaire":11869,"9391":11870,"9431":11871,"9495":11872,"Ġsworn":11873,"Ġspeaker":11874,"ĠDefect":11875,"Ġdialect":11876,"ĠIran":11877,"ĠHot":11878,"3201":11879,"4598":11880,"6795":11881,"0287":11882,"6297":11883,"Ġalert":11884,"4461":11885,"Ġdisple":11886,"6661":11887,"9041":11888,"Ġcompilation":11889,"ĠChild":11890,"Ġ1965":11891,"ĠIndones":11892,"Ġwitch":11893,"ĠPoland":11894,"Ġtroop":11895,"ĠXXV":11896,"Ġamidst":11897,"ĠSquare":11898,"1887":11899,"aus":11900,"ridge":11901,"Ġstamp":11902,"ĠLab":11903,"0211":11904,"6285":11905,"3815":11906,"6801":11907,"4499":11908,"Ġflut":11909,"Ġapes":11910,"Ġ1961":11911,"Ġawhile":11912,"Ġexpert":11913,"Ġcombat":11914,"Ġgarment":11915,"Ġsubsistence":11916,"Ġabundance":11917,"Ġcontradict":11918,"ĠCondy":11919,"fold":11920,"Ġgran":11921,"Ġevere":11922,"ĠCart":11923,"ĠCelia":11924,"gered":11925,"3227":11926,"3274":11927,"6700":11928,"6295":11929,"9201":11930,"ĠOWN":11931,"ieves":11932,"ellow":11933,"Ġqui":11934,"Ġadorn":11935,"Ġ800":11936,"9699":11937,"Ġpassengers":11938,"retion":11939,"Ġswore":11940,"ĠUSE":11941,"uese":11942,"Ġbargain":11943,"Ġtreaty":11944,"ĠWeston":11945,"Ġnegot":11946,"ĠLux":11947,"ĠMelan":11948,"ĠMelbury":11949,"ĠChancery":11950,"Ġimprovement":11951,"Ġgossip":11952,"Ġfist":11953,"Ġpip":11954,"Ġdug":11955,"Ġ1950":11956,"6555":11957,"9291":11958,"0331":11959,"9691":11960,"Ġflocks":11961,"Ġcomplain":11962,"Ġautomatic":11963,"ĠScotch":11964,"Total":11965,"station":11966,"ĠAlf":11967,"Ġseal":11968,"Ġkins":11969,"ĠBless":11970,"ĠWAS":11971,"ĠGer":11972,"ĠGet":11973,"0298":11974,"0241":11975,"6231":11976,"akers":11977,"Ġthoughtfully":11978,"Ġstudying":11979,"Ġpainter":11980,"Ġ1870":11981,"Ġangrily":11982,"Ġobservations":11983,"Ġseventh":11984,"Ġmurdered":11985,"Ġhorns":11986,"Ġdeliberately":11987,"Ġsummoned":11988,"ĠFitzp":11989,"Ġinaccurate":11990,"ĠHudson":11991,"Ġinjustice":11992,"Would":11993,"Ġhousing":11994,"Ġreception":11995,"tery":11996,"Ġdey":11997,"Ġupset":11998,"3285":11999,"6798":12000,"Ġshiver":12001,"3855":12002,"0897":12003,"0301":12004,"percent":12005,"Ġscatter":12006,"ĠAlban":12007,"Ġdefined":12008,"ICH":12009,"Ġdangers":12010,"Ġtranqu":12011,"ĠRepresentatives":12012,"Sir":12013,"six":12014,"4817":12015,"6857":12016,"Ġmanus":12017,"ĠHep":12018,"6301":12019,"9337":12020,"Ġplot":12021,"Ġ1966":12022,"Ġmineral":12023,"Ġinterval":12024,"Ġbloody":12025,"Ġeyeb":12026,"lacement":12027,"Ġcourtes":12028,"Ġantagon":12029,"mailing":12030,"ĠArkwright":12031,"male":12032,"wa":12033,"Ġferv":12034,"ĠHom":12035,"ĠPOSS":12036,"ulars":12037,"3295":12038,"3255":12039,"3501":12040,"3598":12041,"4591":12042,"4800":12043,"4822":12044,"9227":12045,"9257":12046,"unks":12047,"Ġuniverse":12048,"Ġdisd":12049,"areth":12050,"9637":12051,"0631":12052,"0937":12053,"Ġcertainty":12054,"Ġmadness":12055,"Ġjournal":12056,"Ġsickness":12057,"ĠPROV":12058,"Ġdistinguish":12059,"Ġlodge":12060,"Ġpillow":12061,"ĠOrganized":12062,"Only":12063,"Ġmonstrous":12064,"Elect":12065,"adise":12066,"ĠPUR":12067,"Ġdearest":12068,"4215":12069,"4798":12070,"umque":12071,"Ġmanagement":12072,"0831":12073,"0855":12074,"4397":12075,"9331":12076,"9498":12077,"Ġnowhere":12078,"0499":12079,"ĠStra":12080,"ĠContact":12081,"PRESS":12082,"Ġsubstantial":12083,"Ġcorridor":12084,"Ġencounter":12085,"ĠStrickland":12086,"OH":12087,"inter":12088,"Ġweigh":12089,"ilke":12090,"ĠBalt":12091,"ĠPLE":12092,"ĠGIVE":12093,"3237":12094,"3288":12095,"6257":12096,"9099":12097,"0491":12098,"Ġdresses":12099,"Ġnewsletter":12100,"Ġimpatiently":12101,"Ġsprings":12102,"ĠProvidence":12103,"corn":12104,"such":12105,"Ġcows":12106,"Ġfu":12107,"Ġtok":12108,"ĠMi":12109,"three":12110,"3299":12111,"4201":12112,"6855":12113,"Ġlasted":12114,"Ġretain":12115,"Ġassault":12116,"Ġcaptains":12117,"Ġdamned":12118,"Ġmeadow":12119,"Ġfeathers":12120,"ĠMiriam":12121,"Ġembassy":12122,"lles":12123,"4595":12124,"0288":12125,"6822":12126,"ĠDie":12127,"Ġintegr":12128,"uda":12129,"Ġtrous":12130,"Ġimpuls":12131,"Ġpleasing":12132,"ĠCommand":12133,"Ġbitterness":12134,"ĠSaudi":12135,"ĠWhether":12136,"Ġcompetition":12137,"Ġembarrassment":12138,"Ġstaircase":12139,"ĠPhiladelphia":12140,"bot":12141,"Ġbunch":12142,"seil":12143,"Ġ116":12144,"4214":12145,"4731":12146,"0275":12147,"3895":12148,"6837":12149,"9461":12150,"clusive":12151,"ĠCommon":12152,"Ġwinters":12153,"Ġrubbed":12154,"quarters":12155,"Ġmathe":12156,"Ġdirt":12157,"Ġstab":12158,"ĠWind":12159,"Ġ225":12160,"ĠFox":12161,"3231":12162,"bery":12163,"Ġquaint":12164,"9361":12165,"4407":12166,"6699":12167,"Ġrestore":12168,"Ġcharities":12169,"Ġdraught":12170,"Ġbrutal":12171,"ĠAlgeria":12172,"Ġdiscipline":12173,"Ġcrisis":12174,"Was":12175,"Ġtak":12176,"haz":12177,"Ġcement":12178,"Ġbeef":12179,"4531":12180,"3822":12181,"9241":12182,"0877":12183,"Ġgoals":12184,"9098":12185,"Ġ1937":12186,"Ġheartily":12187,"Ġadvised":12188,"Ġembro":12189,"ustrious":12190,"ĠGentiles":12191,"lig":12192,"ĠHor":12193,"6507":12194,"umps":12195,"eling":12196,"9341":12197,"9395":12198,"ĠThur":12199,"Ġchildish":12200,"Ġearthly":12201,"ĠSchool":12202,"Ġappreciate":12203,"Ġinvestigation":12204,"Ġhistorical":12205,"Ġsanctuary":12206,"Ġmoderate":12207,"Ġmagistrate":12208,"your":12209,"Ġsar":12210,"Ġ1914":12211,"0017":12212,"ĠMme":12213,"ĠFif":12214,"ĠFOUND":12215,"0261":12216,"6898":12217,"6827":12218,"eled":12219,"ĠRena":12220,"4301":12221,"9641":12222,"0497":12223,"CEPT":12224,"frae":12225,"Ġbothe":12226,"onge":12227,"Ġpushing":12228,"Ġ135":12229,"ĠLater":12230,"6591":12231,"6241":12232,"9661":12233,"ĠKIND":12234,"Ġadvoc":12235,"Ġinvari":12236,"Ġexperiments":12237,"Ġhunted":12238,"Ġinjured":12239,"Ġbeliefs":12240,"ĠBetween":12241,"Leg":12242,"din":12243,"would":12244,"0022":12245,"ĠHong":12246,"ĠNobody":12247,"9225":12248,"0891":12249,"Ġintoler":12250,"0461":12251,"0699":12252,"Ġevenings":12253,"Ġparliament":12254,"Ġsnapped":12255,"Ġwithal":12256,"Ġsolemnly":12257,"Ġrescue":12258,"Ġmourning":12259,"Ġnephew":12260,"Ġformidable":12261,"gard":12262,"zip":12263,"ĠTest":12264,"Ġ1920":12265,"ĠSk":12266,"ĠSid":12267,"ĠLA":12268,"6725":12269,"0276":12270,"Ġcomposition":12271,"mananda":12272,"Ġfarming":12273,"ceptible":12274,"ĠAbd":12275,"ACE":12276,"umerable":12277,"ĠISO":12278,"ĠBEFORE":12279,"trad":12280,"uerto":12281,"zibah":12282,"Ġhypertext":12283,"door":12284,"Ġbite":12285,"Ġdine":12286,"Ġgn":12287,"Ġ1951":12288,"4257":12289,"6891":12290,"4307":12291,"0495":12292,"Ġscrib":12293,"0691":12294,"1335":12295,"Ġ124":12296,"Ġcolle":12297,"Ġsolitude":12298,"Ġholes":12299,"ĠJewish":12300,"Ġdeceive":12301,"Ġfortunes":12302,"Ġaxe":12303,"ĠCaes":12304,"Ġvolcanic":12305,"folk":12306,"Ġtap":12307,"Ġwi":12308,"ona":12309,"itur":12310,"ĠTre":12311,"Ġ\"_":12312,"Ġ155":12313,"Ġ1964":12314,"0088":12315,"Ġmeek":12316,"Ġvow":12317,"3257":12318,"4585":12319,"0222":12320,"6499":12321,"Ġpreacher":12322,"Ġaccus":12323,"ĠKate":12324,"ĠVice":12325,"ĠVII":12326,"ĠChin":12327,"Ġsummit":12328,"Ġrespects":12329,"Ġsecretly":12330,"ĠColumb":12331,"ĠEmail":12332,"itania":12333,"Ġscholars":12334,"YEAR":12335,"hu":12336,"Ġafore":12337,"Ġsinking":12338,"Ġdies":12339,"ico":12340,"Ġgan":12341,"Ġ1918":12342,"ĠPipelines":12343,"Ġvault":12344,"6595":12345,"0225":12346,"0337":12347,"Ġenlight":12348,"Ġshallow":12349,"ĠInternal":12350,"ĠGods":12351,"Ġ1963":12352,"Ġmetals":12353,"Ġoppress":12354,"Ġdrowned":12355,"Ġveins":12356,"Ġfoodstuffs":12357,"Ġfurnish":12358,"Ġtreasures":12359,"Ġstooped":12360,"Ġpollution":12361,"ĠHester":12362,"Ġcubits":12363,"hites":12364,"pul":12365,"requ":12366,"Ġpapa":12367,"Ġdyn":12368,"Ġlent":12369,"3561":12370,"6761":12371,"6815":12372,"6875":12373,"6814":12374,"9207":12375,"8507":12376,"Ġroaring":12377,"6407":12378,"Ġdownward":12379,"Ġdonation":12380,"Ġattain":12381,"Ġhappily":12382,"aneously":12383,"Ġconsiderably":12384,"Ġaddressing":12385,"Ġboldly":12386,"CLA":12387,"Ġscreamed":12388,"Ġbridle":12389,"ĠCarey":12390,"Ġindemnify":12391,"ĠIraq":12392,"Ġ114":12393,"Ġ1930":12394,"Ġwashing":12395,"0025":12396,"Ġconject":12397,"4298":12398,"0857":12399,"4401":12400,"Ġdislike":12401,"6401":12402,"Ġgoodly":12403,"0907":12404,"Ġloaded":12405,"Ġactivities":12406,"ĠMaced":12407,"Ġradiant":12408,"ĠMeriem":12409,"ĠFarfrae":12410,"ĠKorak":12411,"borg":12412,"alia":12413,"ĠTown":12414,"ĠTrue":12415,"ĠMod":12416,"Ġ215":12417,"3555":12418,"9215":12419,"Ġunwill":12420,"0441":12421,"Ġinduced":12422,"Ġretained":12423,"ibi":12424,"Ġparl":12425,"Ġtranscribe":12426,"ĠINCL":12427,"Ġdatab":12428,"break":12429,"Ġtorture":12430,"ĠVolunteers":12431,"0011":12432,"6515":12433,"9237":12434,"9222":12435,"0598":12436,"0931":12437,"Ġpersisted":12438,"Ġhoarse":12439,"Ġtranscription":12440,"Ġtyran":12441,"Ġfatig":12442,"Ġharmony":12443,"Ġnervously":12444,"Ġrejoined":12445,"Ġexceeding":12446,"ĠANYTHING":12447,"Ġdisclaimers":12448,"donate":12449,"Ġsummers":12450,"ĠEXPRESS":12451,"POSE":12452,"fundraising":12453,"Ġglittering":12454,"ĠINCIDENT":12455,"ĠINCLUD":12456,"Ġtents":12457,"Ġaye":12458,"Ġpir":12459,"0099":12460,"Ġsung":12461,"ĠFur":12462,"4825":12463,"4398":12464,"9601":12465,"ĠAtmananda":12466,"Ġpleaded":12467,"Ġfollowers":12468,"Ġopenly":12469,"ADEM":12470,"Ġchecked":12471,"ĠREF":12472,"Ġfilling":12473,"Ġtempted":12474,"ĠGroup":12475,"Ġboughs":12476,"Ge":12477,"borough":12478,"Ġshan":12479,"Ġ1957":12480,"0055":12481,"Ġseize":12482,"ĠGren":12483,"3888":12484,"ĠDIRECT":12485,"0399":12486,"6698":12487,"6631":12488,"Ġthanne":12489,"Ġslim":12490,"Ġmothers":12491,"ĠJohnson":12492,"zech":12493,"Ġencoding":12494,"Ġvillages":12495,"natured":12496,"Ġvehicle":12497,"Ġhearken":12498,"ĠPLEASE":12499,"ĠINCLUDING":12500,"Long":12501,"Ġduck":12502,"Ġheir":12503,"Ġ1912":12504,"ĠHan":12505,"3531":12506,"0531":12507,"0825":12508,"ĠRet":12509,"ĠUT":12510,"Ġgrasped":12511,"ĠViet":12512,"Ġgravity":12513,"ĠEnglishman":12514,"Ġcharacteristics":12515,"Information":12516,"Ġmotives":12517,"Ġdecline":12518,"Ġprominent":12519,"Ġvigor":12520,"ĠPortuguese":12521,"Ġswallowed":12522,"ĠSingapore":12523,"Ġdazz":12524,"iser":12525,"Ġreaction":12526,"Ġdoom":12527,"4775":12528,"Ġshillings":12529,"ĠDim":12530,"Ġ1944":12531,"ĠAnth":12532,"729":12533,"Ġcrit":12534,"Ġproposal":12535,"ĠChristine":12536,"ĠChristians":12537,"Ġcorpse":12538,"Ġpredomin":12539,"Ġacknowledge":12540,"Ġtraditional":12541,"Ġninet":12542,"ĠIRS":12543,"ĠPUN":12544,"4878":12545,"9297":12546,"ĠOft":12547,"una":12548,"2277":12549,"Ġrobe":12550,"Ġwaiter":12551,"Ġ4557":12552,"Ġreverence":12553,"ĠCompl":12554,"Ġarguments":12555,"Ġproofread":12556,"Ġobviously":12557,"ĠBrooke":12558,"Ġbattles":12559,"ĠDomain":12560,"ĠHepzibah":12561,"Ġ1917":12562,"Ġ1936":12563,"Ġ1910":12564,"ĠAS":12565,"0227":12566,"9299":12567,"9231":12568,"9288":12569,"0827":12570,"Ġdonors":12571,"Ġconspic":12572,"Ġdiscourse":12573,"Ġconfron":12574,"Ġkindred":12575,"Ġtreacher":12576,"IMER":12577,"ĠHighness":12578,"Ġadministrative":12579,"Ġpersuade":12580,"Ġperpetual":12581,"ĠJennings":12582,"Ġwoke":12583,"Ġdent":12584,"0026":12585,"4255":12586,"3595":12587,"0697":12588,"829":12589,"Ġexpensive":12590,"Ġadding":12591,"Ġdefin":12592,"ansas":12593,"Ġjudgments":12594,"Ġaccessed":12595,"ĠCarth":12596,"oleon":12597,"Ġregularly":12598,"Ġinjury":12599,"fects":12600,"Ġresponded":12601,"American":12602,"uras":12603,"ĠSaw":12604,"0041":12605,"ĠWolf":12606,"6601":12607,"9401":12608,"Ġgrind":12609,"Ġattained":12610,"Ġincense":12611,"Ġsnake":12612,"Ġruins":12613,"Ġshades":12614,"Ġeighty":12615,"IDED":12616,"Ġcustomary":12617,"ĠBlan":12618,"Ġvirtues":12619,"Ġensuring":12620,"ĠAdditional":12621,"iac":12622,"town":12623,"wall":12624,"Ġink":12625,"Ġnay":12626,"ĠSEND":12627,"quer":12628,"4875":12629,"unct":12630,"Ġliken":12631,"0637":12632,"Ġproducer":12633,"Ġincap":12634,"ĠTerry":12635,"Ġconceive":12636,"Ġintroduce":12637,"Ġsympathetic":12638,"ĠDaniel":12639,"ĠCONSE":12640,"Ġengineer":12641,"Ġperplex":12642,"Ġdownloading":12643,"Ġaught":12644,"Ġsam":12645,"Ġmas":12646,"asping":12647,"Ġ1911":12648,"Ġstake":12649,"0091":12650,"ĠHilda":12651,"ĠLest":12652,"ĠLuc":12653,"resident":12654,"3215":12655,"ĠEug":12656,"ĠKn":12657,"Ġharbour":12658,"ITIVE":12659,"ĠAbove":12660,"Ġprotected":12661,"Ġladder":12662,"EMN":12663,"Ġpotential":12664,"ĠMoroni":12665,"Ġfertile":12666,"LIED":12667,"Ġsolicitation":12668,"ĠIndonesia":12669,"eches":12670,"Ġ1913":12671,"ĠSanta":12672,"riots":12673,"ghte":12674,"0061":12675,"4525":12676,"6728":12677,"0815":12678,"ourge":12679,"Ġnob":12680,"inkle":12681,"Ġpeep":12682,"0698":12683,"Ġdeserved":12684,"ĠChristopher":12685,"Ġcreeping":12686,"ĠUpdated":12687,"Ġgallery":12688,"Ġeldest":12689,"Ġtransportation":12690,"Ġcitizen":12691,"Ġelegant":12692,"His":12693,"Ġlil":12694,"0037":12695,"Ġdeem":12696,"3515":12697,"4497":12698,"589":12699,"Ġ1942":12700,"enez":12701,"ĠPhilipp":12702,"ENTIAL":12703,"Ġrigid":12704,"Ġlingered":12705,"Ġexecuted":12706,"ĠTitle":12707,"propriet":12708,"ĠPURPOSE":12709,"ĠCONSEQU":12710,"Ġ1959":12711,"ĠSic":12712,"ĠMam":12713,"ĠPG":12714,"Ġsob":12715,"6531":12716,"3525":12717,"3870":12718,"ĠEver":12719,"Ġalien":12720,"Ġshaft":12721,"cile":12722,"3445":12723,"ĠMarquis":12724,"Ġstealth":12725,"Ġvaried":12726,"Ġembrace":12727,"Defense":12728,"ĠMoab":12729,"Ġacknowledged":12730,"ĠContinental":12731,"Ġalcohol":12732,"Ġniece":12733,"sex":12734,"Ġ1969":12735,"Ġ1940":12736,"4225":12737,"6885":12738,"ivian":12739,"Ġspin":12740,"0601":12741,"erers":12742,"ervative":12743,"useum":12744,"Ġcommonly":12745,"Ġafar":12746,"Ġdreaming":12747,"1979":12748,"ĠMademoiselle":12749,"Ġii":12750,"IGENCE":12751,"Ġyielded":12752,"ĠLiberal":12753,"Ġdetective":12754,"Ġinconven":12755,"Ġdarling":12756,"igenous":12757,"ĠPROVIDED":12758,"ext":12759,"Ġbishop":12760,"Ġwelf":12761,"0015":12762,"Ġrational":12763,"6775":12764,"0522":12765,"Ġnod":12766,"Ġspots":12767,"ĠThink":12768,"Ġblush":12769,"Ġexamples":12770,"Ġceiling":12771,"Ġviolates":12772,"Ġdemands":12773,"Ġmajesty":12774,"Ġrulers":12775,"Ġgovernments":12776,"ĠContribut":12777,"Ġbehalf":12778,"Ġtravelled":12779,"ĠNOTICE":12780,"ĠEXCEPT":12781,"ĠMalaysia":12782,"Ġadequate":12783,"Ġwoo":12784,"Ġwholes":12785,"ĠSix":12786,"riety":12787,"0898":12788,"0822":12789,"ounding":12790,"Ġintently":12791,"ĠShell":12792,"Ġpartial":12793,"6437":12794,"Ġapost":12795,"Ġ1931":12796,"enery":12797,"embourg":12798,"Ġprevailed":12799,"CHANT":12800,"olicited":12801,"Ġinvestment":12802,"ITNESS":12803,"Ġwelfare":12804,"bably":12805,"horse":12806,"nor":12807,"Ġ1921":12808,"urred":12809,"urable":12810,"0027":12811,"ĠCorn":12812,"Ġsubl":12813,"ĠFa":12814,"Ġexclud":12815,"9398":12816,"0607":12817,"ĠVIII":12818,"Ġwinding":12819,"ĠRevenue":12820,"Ġdrought":12821,"ĠCarol":12822,"Ġinnumerable":12823,"Defects":12824,"Ġunsolicited":12825,"Ġcomprehens":12826,"Ġdesirable":12827,"ĠClare":12828,"Ġwarranties":12829,"Ġnavigable":12830,"ĠIMPLIED":12831,"gian":12832,"Ġske":12833,"Ġpatch":12834,"icide":12835,"idences":12836,"0250":12837,"9285":12838,"0899":12839,"0861":12840,"available":12841,"Ġglancing":12842,"Ġinsign":12843,"Ġreasoning":12844,"Ġdestiny":12845,"UST":12846,"ĠHarris":12847,"strong":12848,"Ġidol":12849,"Ġministers":12850,"Ġeagerness":12851,"Ġadmirable":12852,"Ġcatching":12853,"ĠDISCLA":12854,"Ġpreparations":12855,"ĠINDIRECT":12856,"Ġdischarge":12857,"Ġdreary":12858,"ĠPARAG":12859,"ĠMERCHANT":12860,"ĠREMED":12861,"ĠPOSSIBILITY":12862,"ĠDISCLAIMER":12863,"fire":12864,"yan":12865,"Ġwha":12866,"Ġtops":12867,"Ġdelet":12868,"Ġagitated":12869,"Ġbron":12870,"izations":12871,"Ġpole":12872,"Ġtraces":12873,"Ġdramatic":12874,"ĠBeyond":12875,"Ġmirth":12876,"ĠFairbanks":12877,"Ġcultivated":12878,"ĠLIABILITY":12879,"ĠRemember":12880,"Ġfacilities":12881,"Ġsubdued":12882,"ĠREMEDIES":12883,"'--":12884,"gone":12885,"Ġbald":12886,"enched":12887,"ĠTol":12888,"entially":12889,"ĠHug":12890,"ĠFITNESS":12891,"Ġroared":12892,"2701":12893,"Ġscared":12894,"Ġresolute":12895,"Ġrepose":12896,"Ġearthqu":12897,"ĠRefund":12898,"obright":12899,"Ġheavenly":12900,"ĠReplacement":12901,"Ġoriginator":12902,"Ġtracks":12903,"Ġrobbed":12904,"Ġlandlocked":12905,"ĠINDEMN":12906,"ĠNEGLIGENCE":12907,"Ġsulph":12908,"ĠSTRICT":12909,"Ġshriek":12910,"ĠINCIDENTAL":12911,"ĠPUNITIVE":12912,"ĠCONSEQUENTIAL":12913,"ĠINDEMNITY":12914,"did":12915,"making":12916,"tell":12917,"Ġmoth":12918,"ĠTry":12919,"ĠSong":12920,"keys":12921,"ĠWomen":12922,"6598":12923,"ĠRad":12924,"9399":12925,"170":12926,"270":12927,"0401":12928,"inted":12929,"Ġ1932":12930,"Ġ1935":12931,"Ġ-->":12932,"Ġcommonplace":12933,"Ġfeminine":12934,"ĠYeobright":12935,"Ġstores":12936,"Ġentertained":12937,"Ġredistribution":12938,"Ġbewildered":12939,"Ġtraffic":12940,"ĠCarthoris":12941,"proprietary":12942,"giving":12943,"ni":12944,"eries":12945,"hate":12946,"ĠHind":12947,"ulpt":12948,"ĠWord":12949,"Ġrepair":12950,"Ġearned":12951,"Ġformation":12952,"Ġsubmit":12953,"Ġ126":12954,"Ġpolitic":12955,"ĠExclusive":12956,"Ġvolunt":12957,"ĠPercy":12958,"Ġforestry":12959,"ĠMexican":12960,"Ġshrugged":12961,"Ġcriticism":12962,"Ġresolve":12963,"Ġchallenge":12964,"ĠOxford":12965,"Ġdiscontinue":12966,"Ġmarvellous":12967,"bal":12968,"bol":12969,"Ġtha":12970,"Ġbrig":12971,"uration":12972,"0031":12973,"0097":12974,"ĠMem":12975,"6823":12976,"0888":12977,"Ġju":12978,"9301":12979,"9695":12980,"Ġthoughtful":12981,"Ġ1938":12982,"ĠTHOSE":12983,"ĠRelease":12984,"ĠNewby":12985,"Ġnegative":12986,"Ġpunished":12987,"Ġtemperate":12988,"Ġfrozen":12989,"ĠAlexandra":12990,"Ġtightly":12991,"Ġdoctors":12992,"CTUAL":12993,"Ġeagle":12994,"Ġ1909":12995,"ĠMorm":12996,"6275":12997,"ĠRand":12998,"6691":12999,"Ġharp":13000,"ĠToad":13001,"Ġsmallest":13002,"Ġundoubtedly":13003,"ĠDorian":13004,"ĠICFTU":13005,"Ġconquered":13006,"Ġsprung":13007,"Ġtrumpet":13008,"Ġdeductible":13009,"ĠContributions":13010,"Sh":13011,"Ġiam":13012,"ĠBars":13013,"ules":13014,"Ġconverted":13015,"4295":13016,"4578":13017,"6247":13018,"6828":13019,"0887":13020,"Ġoutdated":13021,"Ġwillingly":13022,"Ġindisp":13023,"6041":13024,"Ġ1941":13025,"Ġswing":13026,"Ġadvancing":13027,"Ġoccupy":13028,"Ġgoddess":13029,"Ġfiercely":13030,"Ġnaval":13031,"Ġexporting":13032,"Ġvertical":13033,"ĠFitzpiers":13034,"MAN":13035,"maker":13036,"phan":13037,"Ġtant":13038,"have":13039,"Ġ175":13040,"Ġwhites":13041,"riff":13042,"ĠHER":13043,"Ġselling":13044,"ĠGaz":13045,"6575":13046,"3825":13047,"ello":13048,"Ġoverhead":13049,"6441":13050,"Ġcrash":13051,"oult":13052,"Ġesp":13053,"ĠZion":13054,"Ġdespise":13055,"Ġseparation":13056,"Ġ20008":13057,"OME":13058,"Ġliberal":13059,"ĠSudan":13060,"Ġincredible":13061,"Man":13062,"license":13063,"Ġfrant":13064,"ĠSene":13065,"ĠEIN":13066,"ĠDisputes":13067,"Ġquod":13068,"versed":13069,"Ġbeautifully":13070,"ĠĠĠĠĠĠĠĠĠĠĠĠĠĠĠĠĠĠĠ":13071,"ROM":13072,"white":13073,"Ġhyster":13074,"ĠJerry":13075,"THE":13076,"Ġdusty":13077,"Ġtimid":13078,"Indeed":13079,"ione":13080,"Ġ1934":13081,"ĠSections":13082,"Ġ2008":13083,"ques":13084,"Ġvile":13085,"Ġvale":13086,"igs":13087,"Ġunseen":13088,"Ġflowing":13089,"Ġscram":13090,"ogs":13091,"ĠChile":13092,"Ġsweat":13093,"Ġcasting":13094,"holder":13095,"ĠColomb":13096,"Ġtremble":13097,"Ġtongues":13098,"ĠDuchess":13099,"PLAC":13100,"ĠArgentina":13101,"copyright":13102,"oule":13103,"raim":13104,"0098":13105,"ĠPress":13106,"ĠLim":13107,"0126":13108,"Ġexal":13109,"6141":13110,"3537":13111,"oln":13112,"9275":13113,"uns":13114,"urned":13115,"Ġchorus":13116,"0498":13117,"Ġbliss":13118,"Ġindigenous":13119,"Ġcolon":13120,"Ġpaperwork":13121,"ĠMinnie":13122,"ĠBarbara":13123,"ĠDuncan":13124,"ĠHarding":13125,"Ġjacket":13126,"Ġsubsequent":13127,"Every":13128,"Poor":13129,"called":13130,"arus":13131,"Ġ1926":13132,"Ġ1916":13133,"Ġ1919":13134,"4575":13135,"olated":13136,"ĠOs":13137,"Ġprosec":13138,"inder":13139,"Ġquae":13140,"Ġoverlook":13141,"Ġterrified":13142,"4941":13143,"4043":13144,"Ġproducing":13145,"Ġreaders":13146,"Ġcalam":13147,"Ġproceeding":13148,"year":13149,"Ġindustries":13150,"Ġpicking":13151,"Ġinquiries":13152,"Ġvacant":13153,"Ġcautiously":13154,"Ġinterfere":13155,"ĠNapoleon":13156,"Ġunnecessary":13157,"ĠOWNER":13158,"nis":13159,"rice":13160,"uh":13161,"Ġtip":13162,"Ġhoof":13163,"Ġ1955":13164,"Ġ1928":13165,"ĠAene":13166,"ĠACTUAL":13167,"0879":13168,"6695":13169,"rup":13170,"inks":13171,"Ġhandful":13172,"6497":13173,"Ġflush":13174,"were":13175,"Ġplacing":13176,"1300":13177,"ĠAsian":13178,"Ġmaritime":13179,"Ġfamine":13180,"Ġtranslation":13181,"Ġsettlement":13182,"ĠSystem":13183,"Ġexclamation":13184,"Ġpoliceman":13185,"Ġtricks":13186,"Ġbonds":13187,"Ġredistribute":13188,"Ġcomplexion":13189,"ĠCreating":13190,"post":13191,"Ġfoc":13192,"llers":13193,"uting":13194,"Ġyit":13195,"Ġ1933":13196,"Ġrenew":13197,"ĠAst":13198,"ĠWE":13199,"ĠLine":13200,"870":13201,"Ġquad":13202,"9667":13203,"Ġpoets":13204,"Ġcharms":13205,"atorial":13206,"Ġexisting":13207,"Ġbananas":13208,"Ġsticks":13209,"ĠDAMAGE":13210,"Ġredistributing":13211,"ĠCamer":13212,"ĠBrandeis":13213,"ĠSioux":13214,"Ġwiped":13215,"ĠPARAGRAPH":13216,"ĠTan":13217,"Ġ1927":13218,"ĠSone":13219,"rah":13220,"Ġcomrade":13221,"6195":13222,"0305":13223,"4498":13224,"4435":13225,"Ġappealed":13226,"Ġmonop":13227,"2941":13228,"Ġmeetings":13229,"ĠUNIX":13230,"Ġimagin":13231,"Ġcaptured":13232,"Ġenjoying":13233,"Ġgambling":13234,"ĠDISTRIBUTE":13235,"ĠAnthony":13236,"Ġdeletions":13237,"$)":13238,"SA":13239,"jan":13240,"Ġow":13241,"Ġfren":13242,"iciency":13243,"ĠAbs":13244,"ĠSlow":13245,"ĠMun":13246,"3125":13247,"6117":13248,"6267":13249,"0801":13250,"2298":13251,"2868":13252,"..............................":13253,"Ġengra":13254,"Ġliterally":13255,"Ġpositively":13256,"Ġembarrassed":13257,"Ġunlink":13258,"ĠRedistribution":13259,"Ġinvalidity":13260,"ĠHungary":13261,"Ġdismissed":13262,"Ġapprehension":13263,"press":13264,"heart":13265,"Ġwrest":13266,"Ġmix":13267,"Ġ1939":13268,"Ġ1929":13269,"Ġnotifies":13270,"ĠHARD":13271,"Ġexecutive":13272,"3741":13273,"3736":13274,"9141":13275,"ĠOED":13276,"ĠRose":13277,"ĠJones":13278,"Ġunit":13279,"agne":13280,"aug":13281,"4305":13282,"8755":13283,"Ġ1943":13284,"Ġtragic":13285,"Ġanswers":13286,"Ġboot":13287,"Ġartistic":13288,"riting":13289,"Ġpublication":13290,"Ġsuperint":13291,"Ġlieutenant":13292,"Ġconvince":13293,"Ġnonproprietary":13294,"ĠREPLAC":13295,"proved":13296,"ĠNegroes":13297,"ĠAGREEMENT":13298,"Ġfundament":13299,"ĠOPEC":13300,"ĠTRADEM":13301,"ĠDISTRIBUTOR":13302,"Ġ84116":13303,"Ġunenforce":13304,"ĠFOUNDATION":13305,"ĠTRADEMARK":13306,"PAN":13307,"bnew":13308,"nut":13309,"Ġgbnew":13310,"ĠSaxon":13311,"ĠPGL":13312,"4275":13313,"Ġshrie":13314,"9715":13315,"Ġcanvas":13316,"Ġchronic":13317,"Ġslumber":13318,"6907":13319,"Ġ1999":13320,"Ġguar":13321,"6221541":13322,"Ġinclination":13323,"Yea":13324,"ĠLIABLE":13325,"ĠRedistributing":13326,"ĠDONATIONS":13327,"Ġecst":13328,"ĠTunis":13329,"Ġslaughter":13330,"Ġpavement":13331,"trademark":13332,"ĠREFUND":13333,"ĠCompliance":13334,"ĠREPLACEMENT":13335,"Ġunenforceability":13336,"Ġgbnewby":13337,"ĠPGLAF":13338,"Ġlocks":13339,"Ġ1954":13340,"ĠHig":13341,"ĠBurn":13342,"ĠBurg":13343,"ĠPra":13344,"6532":13345,"6512":13346,"Ġprodig":13347,"Ġample":13348,"Ġinduce":13349,"ekiah":13350,"ĠPeru":13351,"Ġcomfortably":13352,"Ġdares":13353,"ascar":13354,"Ġprecaut":13355,"ĠAcademy":13356,"Ġsketch":13357,"Ġimmortal":13358,"enezuel":13359,"aired":13360,"gence":13361,"Ġcars":13362,"Ġpoo":13363,"Ġ1925":13364,"Ġ1922":13365,"vering":13366,"urrection":13367,"raint":13368,"ĠCzech":13369,"Ġ217":13370,"Ġshops":13371,"0549":13372,"Ġworkman":13373,"arers":13374,"velope":13375,"Ġrocky":13376,"Ġcouch":13377,"ĠBelle":13378,"ĠSophy":13379,"Say":13380,"oge":13381,"Ġ157":13382,"Ġ1956":13383,"Ġ222":13384,"alling":13385,"6137":13386,"4808":13387,"Ġnobles":13388,"Ġgover":13389,"6607":13390,"Ġplough":13391,"ĠAssy":13392,"Ġgotten":13393,"Ġstartling":13394,"Ġpayment":13395,"Ġpossessions":13396,"Ġbells":13397,"ĠJapanese":13398,"ĠMartha":13399,"IPUS":13400,"Ġafforded":13401,"ĠWalter":13402,"ĠOEDIPUS":13403,"LY":13404,"OG":13405,"oard":13406,"Ġbever":13407,"Ġ141":13408,"Ġ1923":13409,"ĠMet":13410,"ĠGrey":13411,"ĠLad":13412,"6576":13413,"ĠRoy":13414,"9032":13415,"Ġimpart":13416,"ĠArd":13417,"Ġsermon":13418,"Ġdestined":13419,"Ġmouths":13420,"Ġpurely":13421,"Ġinnocence":13422,"Ġproclaimed":13423,"Ġmurderer":13424,"pointed":13425,"Ġwret":13426,"Ġeh":13427,"Ġ1953":13428,"ĠSav":13429,"ĠPyn":13430,"Ġconnex":13431,"3575":13432,"4799":13433,"6767":13434,"Ġjail":13435,"Ġspared":13436,"Ġdisorder":13437,"Ġpeop":13438,"Ġ1861":13439,"Ġ1860":13440,"Ġwrites":13441,"Ġputs":13442,"ĠAlmighty":13443,"ĠDrouet":13444,"ĠMaybe":13445,"Ġcables":13446,"Ġspending":13447,"Ġwhistle":13448,"Ġbonnet":13449,"Ġtidings":13450,"dt":13451,"zo":13452,"Ġfring":13453,"Ġfuel":13454,"ington":13455,"Ġgit":13456,"Ġ277":13457,"Ġresort":13458,"Ġhappier":13459,"Ġadvise":13460,"ucky":13461,"OULD":13462,"Ġearnings":13463,"Ġcellar":13464,"Ġwithdraw":13465,"Ġ99712":13466,"uwait":13467,"PH":13468,"eur":13469,"made":13470,"sa":13471,"Ġcant":13472,"Ġfanc":13473,"icism":13474,"ĠCora":13475,"ĠPasse":13476,"usively":13477,"cker":13478,"Ġmyn":13479,"unci":13480,"itty":13481,"Ġremnant":13482,"4691":13483,"0901":13484,"Ġjustify":13485,"Ġestimate":13486,"liest":13487,"Ġpromises":13488,"Ġproposition":13489,"ĠNews":13490,"Ġbarren":13491,"chester":13492,"Ġoperating":13493,"Ġvictims":13494,"Ġoneself":13495,"Ġrubber":13496,"ĠGeorgia":13497,"ĠMorocco":13498,"gins":13499,"ini":13500,"Ġboss":13501,"ithe":13502,"Ġmare":13503,"Ġfiction":13504,"ĠTu":13505,"ĠSummer":13506,"0085":13507,"4747":13508,"9632":13509,"Ġparticip":13510,"Ġbigger":13511,"Ġnetworks":13512,"ĠFlore":13513,"Ġgrove":13514,"Ġvirgin":13515,"ĠSalv":13516,"ĠBulgar":13517,"Ġelderly":13518,"ĠElliot":13519,"ĠEthiopia":13520,"Ġlikeness":13521,"Ġyoke":13522,"Ġstately":13523,"ĠCirc":13524,"ainty":13525,"3578":13526,"4548":13527,"6892":13528,"Ġstillness":13529,"Ġintercourse":13530,"Ġawaken":13531,"ĠPerry":13532,"Ġfrontier":13533,"ĠMaud":13534,"ĠEmperor":13535,"Ġmaidens":13536,"Ġprimarily":13537,"Ġgrieved":13538,"partout":13539,"Ġpupils":13540,"Ġechoed":13541,"ĠPhoebe":13542,"ĠCuba":13543,"ties":13544,"ĠSl":13545,"ĠSally":13546,"Ġanon":13547,"ĠPut":13548,"ĠWy":13549,"3711":13550,"4208":13551,"Ġrosy":13552,"Ġtwist":13553,"6498":13554,"Ġblown":13555,"Ġpassages":13556,"rowave":13557,"6931":13558,"Ġ---":13559,"Ġapproved":13560,"Ġcapture":13561,"Ġautom":13562,"Ġstrictly":13563,"PS":13564,"path":13565,"Ġfri":13566,"esc":13567,"Ġnour":13568,"Ġhats":13569,"0095":13570,"Ġsabb":13571,"Ġ211":13572,"ĠLinc":13573,"3878":13574,"9114":13575,"0535":13576,"Ġoutline":13577,"Ġpear":13578,"ĠStar":13579,"0695":13580,"Ġinstances":13581,"Ġnamely":13582,"Ġvisiting":13583,"Ġpleasantly":13584,"Ġstrained":13585,"ĠZones":13586,"Ġhurrying":13587,"ĠGuy":13588,"Ġhostile":13589,"Ġmiracle":13590,"Ġforbidden":13591,"ĠJulia":13592,"Ġfantastic":13593,"Ġrestaurant":13594,"green":13595,"hour":13596,"vard":13597,"Ġ%":13598,"Ġpulp":13599,"Ġgospel":13600,"lyn":13601,"Ġ161":13602,"ĠLow":13603,"6518":13604,"4567":13605,"4895":13606,"6447":13607,"280":13608,"ĠWhose":13609,"Ġdoubted":13610,"ĠDoes":13611,"Ġpatent":13612,"Ġpillars":13613,"Ġpurchasing":13614,"Ġexhibited":13615,"Ġlandlord":13616,"Ġtempest":13617,"edd":13618,"Ġtoken":13619,"otic":13620,"0057":13621,"ĠLazar":13622,"4199":13623,"3812":13624,"elope":13625,"Ġunacc":13626,"hedral":13627,"Ġadjo":13628,"Ġsculpt":13629,"1901":13630,"Thou":13631,"Ġhurriedly":13632,"Ġjaws":13633,"Ġtrousers":13634,"Ġtut":13635,"Ġ1924":13636,"ĠAthel":13637,"9177":13638,"unce":13639,"Ġleve":13640,"Ġquoth":13641,"Ġ1862":13642,"Ġremedy":13643,"ials":13644,"ONE":13645,"Ġbrightness":13646,"ROW":13647,"ĠFear":13648,"Ġhanged":13649,"ĠPhill":13650,"Ġwitnessed":13651,"ĠRaoul":13652,"Ġumbre":13653,"Ġirresist":13654,"FF":13655,"Ġcush":13656,"atem":13657,"ĠAE":13658,"ĠMall":13659,"romise":13660,"istle":13661,"6508":13662,"6258":13663,"ĠJasper":13664,"Ġliking":13665,"agers":13666,"4408":13667,"9647":13668,"Ġcurrency":13669,"ĠSpring":13670,"Ġhonestly":13671,"Ġexercised":13672,"ĠFinland":13673,"ĠLiberation":13674,"ĠAshton":13675,"outheast":13676,"ĠEphraim":13677,"ĠMERCHANTIBILITY":13678,"VER":13679,"gings":13680,"Ġsie":13681,"Ġnit":13682,"Ġyawn":13683,"ilful":13684,"ĠBang":13685,"3155":13686,"3140":13687,"ĠDa":13688,"9211":13689,"4367":13690,"4447":13691,"Ġenvelope":13692,"9608":13693,"9047":13694,"6461":13695,"icker":13696,"Ġhonourable":13697,"Ġexpectation":13698,"Ġfragments":13699,"Ġvirtuous":13700,"Ġcourtesy":13701,"ĠPassepartout":13702,"jib":13703,"itations":13704,"itably":13705,"riger":13706,"Ġweird":13707,"ĠHans":13708,"Ġorange":13709,"3275":13710,"Ġdoings":13711,"Ġshrank":13712,"6208":13713,"6335":13714,"Ġsmiles":13715,"529":13716,"Ġsubt":13717,"Ġchanced":13718,"Ġmoor":13719,"Ġlegit":13720,"Ġhasty":13721,"ooner":13722,"Ġlimb":13723,"ĠHarold":13724,"Ġinhab":13725,"Ġsuspicious":13726,"ĠKnightley":13727,"Ġpupil":13728,"AH":13729,"Ġfisher":13730,"Ġlions":13731,"Ġ195":13732,"Ġ158":13733,"0075":13734,"ĠBroad":13735,"ĠPur":13736,"6567":13737,"Ġintensity":13738,"Ġoverse":13739,"6495":13740,"Ġglances":13741,"Ġmargin":13742,"Ġswam":13743,"Ġbelieving":13744,"Ġrepresentative":13745,"Ġportions":13746,"Ġdismay":13747,"Ġfloated":13748,"Ġsuperiority":13749,"Ġgrip":13750,"Ġgigantic":13751,"Af":13752,"rons":13753,"sus":13754,"Ġbows":13755,"Ġfader":13756,"Ġ241":13757,"Ġridge":13758,"3798":13759,"3847":13760,"lac":13761,"odox":13762,"9435":13763,"Ġbrim":13764,"Ġpeasant":13765,"Ġcarved":13766,"ĠArg":13767,"ĠAtt":13768,"3098":13769,"Ġcurve":13770,"Ġtotally":13771,"Ġthirteen":13772,"Ġhymn":13773,"Ġrecognised":13774,"ĠEdna":13775,"Ġtowers":13776,"Ġerected":13777,"Ġappropriate":13778,"Ġexalted":13779,"ĠLincoln":13780,"105":13781,"cat":13782,"dam":13783,"oir":13784,"Ġcate":13785,"Ġcaval":13786,"Ġetern":13787,"Ġante":13788,"Ġ201":13789,"3198":13790,"oper":13791,"4218":13792,"4212":13793,"6235":13794,"3821":13795,"Ġagents":13796,"Ġliable":13797,"4348":13798,"Ġdish":13799,"Ġgrotes":13800,"Ġgreatness":13801,"Ġscript":13802,"Ġrab":13803,"Ġbetwixt":13804,"Ġpossibilities":13805,"Ġordin":13806,"ĠElton":13807,"Ġtenth":13808,"Ġexhaust":13809,"Ġconsisting":13810,"ĠUntil":13811,"Ġclergyman":13812,"ĠApollo":13813,"Ġora":13814,"erals":13815,"isle":13816,"Ġ275":13817,"3205":13818,"9245":13819,"Ġshabby":13820,"ĠJourn":13821,"Ġ707":13822,"asses":13823,"Ġprow":13824,"Ġconference":13825,"Ġdevice":13826,"ĠCHR":13827,"Ġcandy":13828,"Ġgroaned":13829,"Ġdescending":13830,"Ġtalents":13831,"Ġunconsciously":13832,"Ġlatest":13833,"Ġblaze":13834,"Ġstamped":13835,"Ġconstructed":13836,"Ġelaborate":13837,"away":13838,"asure":13839,"imo":13840,"ĠSub":13841,"ĠPoint":13842,"estone":13843,"6535":13844,"ĠESC":13845,"pert":13846,"Ġcoral":13847,"Ġstatutes":13848,"Ġdepended":13849,"Ġlearnt":13850,"Ġprosperous":13851,"Ġoxen":13852,"bourne":13853,"ĠCleves":13854,"Ġawaiting":13855,"Ġesteem":13856,"People":13857,"rating":13858,"stead":13859,"Ġrever":13860,"ĠWend":13861,"Ġ2009":13862,"3187":13863,"0267":13864,"3835":13865,"3868":13866,"umbled":13867,"6347":13868,"Ġcann":13869,"ĠUg":13870,"ĠStri":13871,"0605":13872,"520":13873,"Ġmines":13874,"Ġbuying":13875,"ĠChallen":13876,"ĠRepublican":13877,"Ġbowl":13878,"Ġcontainer":13879,"Ġ<--":13880,"ĠBoard":13881,"Ġimpressions":13882,"Ġtelegraph":13883,"Ġobedience":13884,"ĠUtter":13885,"Ġeyebrows":13886,"ĠVietnam":13887,"ĠMormon":13888,"cane":13889,"eight":13890,"hist":13891,"...\"":13892,"usal":13893,"3727":13894,"3832":13895,"3858":13896,"ĠDur":13897,"Ġnostri":13898,"ĠRus":13899,"ĠJerem":13900,"9035":13901,"Ġ499":13902,"interest":13903,"Ġ1850":13904,"ASTLE":13905,"Ġestimated":13906,"Ġwhosoever":13907,"Ġhen":13908,"Ġreins":13909,"ĠSn":13910,"ĠBah":13911,"ĠPS":13912,"Ġ297":13913,"abul":13914,"Ġdost":13915,"0247":13916,"6205":13917,"4847":13918,"9157":13919,"inkling":13920,"Ġ1848":13921,"Ġunderneath":13922,"Ġragged":13923,"Ġappoint":13924,"Ġdragon":13925,"shore":13926,"Ġphosp":13927,"Ġsupplies":13928,"Ġscratch":13929,"Ġbabies":13930,"ĠWildeve":13931,"ĠBreit":13932,"Ġavenue":13933,"Ġost":13934,"oust":13935,"Ġbred":13936,"6228":13937,"ĠRoll":13938,"Ġ397":13939,"0308":13940,"Ġremorse":13941,"Ġoldest":13942,"Ġrefriger":13943,"ĠAthens":13944,"ĠRec":13945,"Ġprior":13946,"uesday":13947,"Ġcoldly":13948,"Ġviolin":13949,"Ġconvuls":13950,"zzar":13951,"Ġruled":13952,"Ġfurnace":13953,"Ġtenderly":13954,"Ġstockings":13955,"Ġgorgeous":13956,"bows":13957,"Ġslack":13958,"Ġcream":13959,"arious":13960,"Ġsealed":13961,"Ġrises":13962,"3107":13963,"3234":13964,"0278":13965,"9045":13966,"Ġ1867":13967,"Ġ1830":13968,"ĠKansas":13969,"Ġfarms":13970,"Ġskins":13971,"Ġvisions":13972,"Ġserpent":13973,"Ġoppressed":13974,"Ġeffected":13975,"Ġconvict":13976,"Ġtraveling":13977,"Ġindefinite":13978,"ĠAfghanistan":13979,"Ġinvariably":13980,"enezuela":13981,"Ġtil":13982,"ĠAby":13983,"ĠHels":13984,"ĠPlace":13985,"Ġsailing":13986,"6218":13987,"3848":13988,"9144":13989,"Ġchast":13990,"Ġlazy":13991,"Ġacute":13992,"Ġincidents":13993,"Ġdecree":13994,"ugged":13995,"Ġstrongest":13996,"cope":13997,"0381":13998,"Ġlordship":13999,"Ġidentity":14000,"Ġseventeen":14001,"Ġvigorous":14002,"Ġrejected":14003,"Ġartificial":14004,"every":14005,"pool":14006,"itched":14007,"4205":14008,"6812":14009,"osa":14010,"elled":14011,"6367":14012,"9348":14013,"bli":14014,"2811":14015,"beau":14016,"Ġskirts":14017,"Ġfactory":14018,"Ġdrum":14019,"Ġimported":14020,"Ġdirectory":14021,"ocrates":14022,"Ġforgetting":14023,"ĠLaura":14024,"ĠSteven":14025,"Ġmerchants":14026,"Ġtribute":14027,"Ġsympt":14028,"rd":14029,"Ġfiend":14030,"orce":14031,"oming":14032,"leton":14033,"ĠAff":14034,"iry":14035,"Ġkin":14036,"ĠWed":14037,"ĠWCL":14038,"ĠFriend":14039,"3787":14040,"ĠNon":14041,"0258":14042,"3845":14043,"6867":14044,"Ġ1840":14045,"Ġspecially":14046,"ocity":14047,"Ġslid":14048,"Ġextend":14049,"Ġsimult":14050,"grown":14051,"boat":14052,"Ġproceedings":14053,"Ġrecorded":14054,"Ġspectacle":14055,"ĠPete":14056,"ĠDepartment":14057,"ĠNemo":14058,"ĠBehind":14059,"Ġexchanged":14060,"Ġsabbath":14061,"ubs":14062,"sea":14063,"amily":14064,"0199":14065,"4821":14066,"9185":14067,"9345":14068,"Ġcompare":14069,"Ġ1864":14070,"iterranean":14071,"rooms":14072,"ĠCanadian":14073,"ĠMagnus":14074,"Ġanalysis":14075,"Ġstumbled":14076,"Nor":14077,"Ġbored":14078,"Ġnavy":14079,"ĠSac":14080,"ĠHath":14081,"ĠMax":14082,"Ġshewed":14083,"nty":14084,"Ġworried":14085,"0127":14086,"3717":14087,"ĠNat":14088,"0235":14089,"6292":14090,"Ġchicken":14091,"Ġcontrived":14092,"Ġhousekeeper":14093,"4099":14094,"6097":14095,"Ġsurm":14096,"Ġmomentary":14097,"Ġexciting":14098,"altered":14099,"Ġfunctions":14100,"Ġzinc":14101,"Ġreveal":14102,"Ġbasin":14103,"Ġabundant":14104,"Ġolive":14105,"Ġprolonged":14106,"EBook":14107,"eves":14108,"iantly":14109,"imus":14110,"Ġrepl":14111,"iths":14112,"rik":14113,"0007":14114,"Ġsections":14115,"3208":14116,"4245":14117,"6125":14118,"6212":14119,"Ġintr":14120,"4467":14121,"cled":14122,"Ġsmite":14123,"Ġharmon":14124,"Ġwondrous":14125,"Ġstatue":14126,"Ġcoup":14127,"Ġargued":14128,"ĠCountess":14129,"Ġporter":14130,"Ġinfinitely":14131,"Ġunimproved":14132,"Ġunwilling":14133,"ĠSalvador":14134,"idel":14135,"ĠTor":14136,"ĠTal":14137,"lder":14138,"0067":14139,"Ġdefore":14140,"0155":14141,"3117":14142,"6586":14143,"3757":14144,"4125":14145,"ĠNuma":14146,"0576":14147,"Ġ797":14148,"Ġdisaster":14149,"9408":14150,"9092":14151,"Ġpeas":14152,"Ġcontempor":14153,"Ġending":14154,"Ġillumin":14155,"Ġsnatched":14156,"OUR":14157,"Ġdemocracy":14158,"Ġrepresentatives":14159,"ĠAgency":14160,"ĠCharity":14161,"Ġsinned":14162,"4083":14163,"Ġproudly":14164,"Ġphilosoph":14165,"Ġwritings":14166,"ĠGolden":14167,"Ġbuffalo":14168,"Ger":14169,"NE":14170,"Pr":14171,"gle":14172,"oam":14173,"onian":14174,"Ġmule":14175,"Ġpp":14176,"Ġhered":14177,"ĠARE":14178,"rap":14179,"ĠMAN":14180,"Ġsheets":14181,"ĠWFTU":14182,"Ġ255":14183,"6878":14184,"9125":14185,"Ġ307":14186,"0392":14187,"ishly":14188,"ĠThu":14189,"0635":14190,"Ġkeys":14191,"6099":14192,"Ġconfer":14193,"ĠLeop":14194,"Ġuncomm":14195,"ĠAmaz":14196,"9424":14197,"Ġmanufactures":14198,"Ġfashionable":14199,"Ġaffliction":14200,"ĠColombia":14201,"ĠChallenger":14202,"Ġdeforestation":14203,"iage":14204,"icular":14205,"ĠTheod":14206,"ĠHo":14207,"ĠMethod":14208,"Ġsoap":14209,"3199":14210,"3188":14211,"3185":14212,"4258":14213,"6858":14214,"9504":14215,"onga":14216,"4347":14217,"6308":14218,"Ġspy":14219,"9347":14220,"iley":14221,"0667":14222,"Ġconspir":14223,"ĠAlb":14224,"2935":14225,"ĠCommittee":14226,"Ġsweetness":14227,"Ġsadness":14228,"ĠJeho":14229,"Ġwealthy":14230,"ĠMediterranean":14231,"Ġtranslated":14232,"Ġmanuscript":14233,"Please":14234,"fig":14235,"fax":14236,"good":14237,"rise":14238,"Ġdash":14239,"ĠTren":14240,"ĠSem":14241,"ĠHaz":14242,"ĠMuch":14243,"ĠCost":14244,"0188":14245,"ĠNam":14246,"Ġalas":14247,"Ġprostr":14248,"Ġunkind":14249,"Ġchariot":14250,"ĠKron":14251,"Ġimports":14252,"Ġproduces":14253,"These":14254,"Ġsweeping":14255,"Ġhurled":14256,"Ġattempting":14257,"ĠNephites":14258,"Ġambass":14259,"ĠJonas":14260,"ĠVenice":14261,"Ġcliffs":14262,"Note":14263,"sla":14264,"serv":14265,"inia":14266,"Ġincess":14267,"lde":14268,"Ġ145":14269,"ĠAub":14270,"6155":14271,"6202":14272,"Ġ715":14273,"9332":14274,"9335":14275,"6632":14276,"9405":14277,"gery":14278,"ucker":14279,"Ġcommander":14280,"Ġdamsel":14281,"apping":14282,"ĠTrust":14283,"Ġfarmers":14284,"Ġstirring":14285,"Ġaffectionate":14286,"Ġalternative":14287,"Ġstubborn":14288,"Ġapparatus":14289,"cation":14290,"Ġthumb":14291,"imer":14292,"Ġ109":14293,"ĠAy":14294,"Ġ295":14295,"3777":14296,"3818":14297,"9117":14298,"0797":14299,"aste":14300,"ĠRub":14301,"4492":14302,"aching":14303,"Ġ1868":14304,"Ġ1863":14305,"Ġapples":14306,"ĠScro":14307,"ĠColin":14308,"Ġoccurs":14309,"Ġpraised":14310,"ĠHugh":14311,"oil":14312,"Ġale":14313,"hah":14314,"Ġthilke":14315,"ĠAC":14316,"ĠHapp":14317,
[...]
